/**
  ******************************************************************************
  * @file    network_data_params.c
  * @author  AST Embedded Analytics Research Platform
  * @date    2026-05-19T08:25:29+0100
  * @brief   AI Tool Automatic Code Generator for Embedded NN computing
  ******************************************************************************
  * Copyright (c) 2026 STMicroelectronics.
  * All rights reserved.
  *
  * This software is licensed under terms that can be found in the LICENSE file
  * in the root directory of this software component.
  * If no LICENSE file comes with this software, it is provided AS-IS.
  ******************************************************************************
  */

#include "network_data_params.h"


/**  Activations Section  ****************************************************/
ai_handle g_network_activations_table[1 + 2] = {
  AI_HANDLE_PTR(AI_MAGIC_MARKER),
  AI_HANDLE_PTR(NULL),
  AI_HANDLE_PTR(AI_MAGIC_MARKER),
};


/**  Weights Section  ********************************************************/
AI_ALIGNED(32)
const ai_u64 s_network_weights_array_u64[2594] = {
  0xbd79abb53e925bb0U, 0xbd75cefbbd91e4a0U, 0xbdc900173dc25e89U, 0xbdc39322be26ba71U,
  0xbea691113ce2db38U, 0x3d928bd3bd74af4dU, 0xbebd6ae6be2cb29cU, 0x3ef1f6cf3f3d5bbbU,
  0xbd15e5a7beea874eU, 0xbe8791e23f98f88cU, 0x3faba836bf7c821bU, 0xbf5c047bbe95ad00U,
  0x3d8e8917bdea630fU, 0xbdb169dd3d78a61dU, 0x3e6cacd1be1d6394U, 0xbc08e5abbe9345a2U,
  0x3d0ca5d9bea18dfeU, 0xbe160ff9be4fe163U, 0x3e9e61203f95bedcU, 0x3f074e143f4f078eU,
  0xbef18295bf95232dU, 0x3f9bb834bfff1b6dU, 0xbfcaefb4bf896733U, 0xbfc8121e3f70ef43U,
  0x3e3a4960beaee6d0U, 0x3e2a8b3e3f2bc2c5U, 0x3e2c4662be68e310U, 0xc0423fd5be2c6ed2U,
  0xbe16a0b9becbb664U, 0xbe44c379c0462147U, 0xbe4d63283eea60c6U, 0xbe8874d3bedc7a4aU,
  0x3aa109eebe39cdb8U, 0xbe203eaa3e5af319U, 0x3e88d86abf67a6c1U, 0xbf17aae3bd7ebac2U,
  0xbc97c71ebe63a1ffU, 0xbec44ac43d3744d3U, 0x3f4c7d7b3e2d8f19U, 0x3e998782bfad40adU,
  0xbf97799bbca16c47U, 0xbe91bba43e454ef3U, 0xbef608e9be916462U, 0xbeede4613f4c4d9cU,
  0x3f5f6404beacd31bU, 0x3e58867ebf9a2a75U, 0xbf9e64693f46d2ccU, 0x3f4cf7d23e2db6a1U,
  0xbebad6d13e889be3U, 0x3de5d25bbe768f34U, 0x3d8dbe7cbecc08f2U, 0xc041eab7bf805c1aU,
  0xbf55ddb6c05c63a7U, 0xc051baedc03c573dU, 0x3fcb2bdfbdbf0ce2U, 0x3ebb93ac3ed09f70U,
  0x3c8bdfe5bd5875beU, 0xbeb5be0e3efd74d1U, 0x3edb3a87bf7b3fc9U, 0xbf4cd537beaf06c1U,
  0xbf654a983d17e106U, 0x3fb259b53f5973c0U, 0xbe4c5a463e6d533eU, 0x3eeb2ed7c019c2adU,
  0xc019875cbeae180eU, 0xbe2fcc993f17ea43U, 0xc0053051c02533cfU, 0x3eeb8472bd104a4aU,
  0x3e0df1163e65171bU, 0x3ec219dbbf649db0U, 0xbfa410b5c0ab4ec0U, 0xc0ab0cf63f1af2a5U,
  0x3d8b8602bf7c1870U, 0x3e4d5b56bf230febU, 0xbf9f4e663ef1acbeU, 0x3eec0b7dbfdd6f1dU,
  0xbfcdfb733e4400b3U, 0x3ea970bb3e98a523U, 0xbdb868823f03e132U, 0x3d7c76263f2ce83bU,
  0xbe6444c5bf286ae3U, 0x3cea11e4bf6a67b0U, 0xbf3be6e83d512c0aU, 0x3d206576bdd7857cU,
  0x3f91eabb3f06f128U, 0x3d5a5cc4bec7a798U, 0x39c6cfbb3f48d67fU, 0xbfb33fae3dfb1f9cU,
  0x3f183c033f3cfac4U, 0x3f35a944bfc51092U, 0x3e9844de3d6cc133U, 0x3e916e7dbec73be2U,
  0xbdf1fa6c3dcb4de6U, 0xbebc3f25bf1c1247U, 0xbdfc4c5bbe8d1958U, 0xbdc579c1be7908c5U,
  0xbe5d897b3fef55e8U, 0xbe787a61bdfd866fU, 0xbe8a3055be9be5e6U, 0x3d90610bbe8e3f13U,
  0xbf53cdb43f024541U, 0x3f630c6d3e474804U, 0xbfd9a57d3ee02ec3U, 0xbf15e0053f55f092U,
  0x3eedf6febf5daa1eU, 0xbe2ccfe6bee8ecb6U, 0xbed14b5bbf4c0756U, 0xbf2abe46bd702d0fU,
  0xbdc00c45bf66e3abU, 0x3edce3d73f064ff5U, 0xbef274fc3e4fa788U, 0x3f389f57c015d6a5U,
  0xbff027efbfac9b85U, 0xbf9b11e53f24ab03U, 0x3ee46b423f468d59U, 0xbe876880be6acac7U,
  0xbd0781e0be0d5bfaU, 0xbfe7dc5b3d8949a1U, 0x3d8c2681bd9c245eU, 0x3ed660c5c003ad29U,
  0xbe0aae0fbf34d087U, 0x3f33e330be58d2afU, 0xbf4b9ff23e09e6bfU, 0x3dedda243f64d262U,
  0x3f8822ffbe14dfecU, 0xbebdf1dabdd7513dU, 0x3e6ff8a0be1df625U, 0x3db54323be068fdeU,
  0xbcccc7b3ba412549U, 0x3d6502e5beb1cb87U, 0xbe230b20be0e5aa3U, 0x3e72e8e5bd31ff0eU,
  0x4022e63640079a44U, 0xbeffcc3f3edf7d0aU, 0x3eb0f16fbf0cd7c8U, 0xbfb43282c067dd11U,
  0xc0583ec93e82a5aaU, 0x3ebe0deebfa18954U, 0x3f4c76bbbf831c9aU, 0xbe11390dbe79a393U,
  0x3da03f973e82b14eU, 0xbfcb5af03f382b90U, 0x3f576dcc3df67220U, 0xbd93bbfabfe2b698U,
  0x3f71b6bc3e0d1ce0U, 0x3f5a37253e249bdbU, 0xbfae1c88bd9b1cddU, 0xbf9d257b3ed42562U,
  0xbe0f3c49bf99ddfaU, 0xbfbf8babbfa0a5c3U, 0xbf487f933f27a7e9U, 0xbf746e593cd38baeU,
  0x3f1d65e4be66a262U, 0x3e5113c3bf269296U, 0xbf7f0ccc3d974a07U, 0xbe7034ee3ef05f42U,
  0xbf0b99e9bf6f115bU, 0x3fadc6403fc43830U, 0xbf68ee6bbf81cdb0U, 0x3c993b86becd0597U,
  0xbf2a5aaebfceb6ebU, 0xbfd2dd4d3e6239bcU, 0x3f665149bf2e0371U, 0x3e50cfa1bf042a35U,
  0xbf936db73f1cab58U, 0x3e4da447bed078f7U, 0xbe954e1f3e288f4aU, 0xbea728ba3e2abbffU,
  0xbfe0b011bea9c918U, 0xbf1b1e4d3f37a68fU, 0x3ed0d13dbf622d9eU, 0xbe6626133f8165f7U,
  0x3f79688abfa4c411U, 0xbf9f7c5dbe305a45U, 0xbd98998d3fcdb1e3U, 0xbf5f4c6b3fb69921U,
  0x3f580544bf87c600U, 0x3e4038253eb83eb9U, 0x3e8272823f37dc23U, 0x3f16e9ee3e6ff1f9U,
  0xc092bfbebff41f2dU, 0xbf7d0eb5be8dbd22U, 0x3f979a5c3ed5917bU, 0x3eeee0cdbff3c182U,
  0xc009ad683dac4212U, 0x3dacdfe63ec3d037U, 0x402900643f00baefU, 0x3e43c73cbd989c13U,
  0xbf7ad27b3eb3af2fU, 0xbfc5fd153f16dbc9U, 0x3ee5f4293f0e8bb0U, 0x3f64c386bfd4d700U,
  0x3f0e15593f1db438U, 0xbf3c525bbee966f6U, 0x3ee5fbe23e73ff2dU, 0xbfd47bcdbea3da6aU,
  0xbeac48f4c030f809U, 0xc0207a83bfdc92afU, 0xbf88e1123f2c628aU, 0x3e86e3cb3ed2e086U,
  0x3f23fafa3f00e8a9U, 0xc042f0f4be2b13f4U, 0xbee0cdfec05dfb15U, 0xc05037d3c020a907U,
  0x3f8e30b93eb650ebU, 0x3e6b5e913e0b1b89U, 0xbfae55c5bf06b4c0U, 0xbfda509fbe8cdadcU,
  0xbeeb6508bf88e4fbU, 0xbf0bb151c0058579U, 0x3f009de3bebe6d65U, 0xbef7590bbdbf217fU,
  0x3e9e4b96becf203dU, 0xbd0b5708bf2b679cU, 0xbf890d0fbf19224eU, 0xbeccdfc2bea2eef7U,
  0xbe7ff8e3bfe776caU, 0x3fa24b54bf04fa39U, 0xbefe3da03f5ab182U, 0x3e9b6a83c01931c6U,
  0xc01db6babfa8ef22U, 0xbfa5b6683eb1e819U, 0x401198063fde0680U, 0xbe2e61693f6aa73aU,
  0x3e5bb99abf7bed87U, 0xc032d2c5bf033cabU, 0xbf1700a0bfc59720U, 0xbfb42f9cc01bc66cU,
  0x3ec53441be2ada8aU, 0xbe6d6e6d3e0c8938U, 0x3e7866943e95547fU, 0xbf807df3bf1fd541U,
  0xbe94001cbf9f7cc2U, 0xbfb79ac0bf33ea64U, 0xbe01c69cbef3cffdU, 0xbf1afab4bec66be0U,
  0x3f5b0e7f3de0c599U, 0x3e80535abfbe5c30U, 0xbfa53c203f23cde3U, 0x3f787e6d3e89a923U,
  0xbf2cd6383e51935dU, 0xbf20aaa33f3241a4U, 0x3f08dcc2be8ca11bU, 0xbb35a4b5bd6271c1U,
  0xbec3bca5bd86e2caU, 0xbe1c86ea3e86df40U, 0xbd6625c33eaee853U, 0xbf84c280bd9d602fU,
  0x3f81c8fabb65d3a3U, 0x3cea7f223d463dd4U, 0x3eb986723efd0e4dU, 0x3f2413233ef7a3dcU,
  0xbd0bfab1be9df4dbU, 0x3e3eb1583e2549ffU, 0x3dddf6b73d699f85U, 0xbd6126013f859bb7U,
  0x3f5db839be9a0dddU, 0xbe5ab0ebbe9ee1cfU, 0x3e9dc0023f2c0d24U, 0x3ee1a0953ea6a1ccU,
  0xbe130566bf0938d1U, 0xbf5c1dc13fb778bcU, 0x3fa86802bdf04a8bU, 0x3e06f3babf47de09U,
  0xbecba6e8bdc2122dU, 0xbf03392f3dc44c52U, 0x3f4445813ede4ce3U, 0xbf0f8995bf97da33U,
  0xbfac72173eb8efcbU, 0x3d2b6b49bd979aacU, 0x3ed6c0483ec8eb10U, 0x3ecdf29c3fb62c05U,
  0xbbc76301bfcf03adU, 0x3d8787da3f8b7d2dU, 0x3f6d3f67bcf5ce5fU, 0x3e6f22d33e22ab8fU,
  0x3f19a5e8bf5a5702U, 0x3fb95114bc087c3fU, 0xbf6719c43ee5127dU, 0x3e777e0bbe41419eU,
  0xbef924a83e31c3d6U, 0x3e75032d3ee1a65aU, 0xbd5eebcebf45ae38U, 0x3ec00850be8dff16U,
  0x3c0cb91b3f28711cU, 0xbda15e1abe97e923U, 0xbf0a6a813f575d03U, 0x3f00cd83bd7be1eeU,
  0xbe14ce52bf394b8aU, 0x3f8eafc63f427cecU, 0xbf84c4fb3f031e92U, 0x3f2b9f71bfe1593eU,
  0xbfbc6820be6e1f8cU, 0x3e0122583f304e6bU, 0xbe6f6cafbf86283cU, 0xbf1e1789bf10dc24U,
  0x3e8894693f3e0bdeU, 0x3f2b0ab63f61460eU, 0x3f3cb618be145143U, 0xbd6efe193eb77e87U,
  0x3f821e763ff48b41U, 0x3ef83dd23ef04618U, 0xbeb9c197bf25a0f6U, 0xbfe9fbe5bdab8756U,
  0xbf029159bf9eca37U, 0xbfb729f3c007c8bbU, 0xbf8892823fb4f4caU, 0xbe27e1e83f50dad2U,
  0x3f42c1c1bf785ccdU, 0x3e8b96bc3f20fddeU, 0x3ef586c9bf36cae8U, 0xbf925ffa3e17c826U,
  0xbe9bd74bbf9ebd97U, 0x3e6a6406bf48a341U, 0xbf4fe2c93f082647U, 0x3d06e6693e0821aeU,
  0x3db2f1263d478f72U, 0xbd153b80be88b242U, 0x3edd68c9be66fc38U, 0x3e3b130dbeb4db22U,
  0xbe5c76983f22919dU, 0x3dd5a0093ed969e8U, 0x3f4c58ec3e5fa254U, 0x3e44a5bf3e824e0dU,
  0xbe38d8cc3e916790U, 0x3e53adf13ebef341U, 0x3e374b0dbef066feU, 0x3f36f1ed3fad89bdU,
  0x3f5c33283e45384cU, 0xbc22de173f109363U, 0xbe94d65f3f2e600aU, 0xbe307f193ea12132U,
  0x3ef3cabfbe515520U, 0xc00182f0bf77f91fU, 0xbf40a53b3ef117faU, 0x3ef7ef73c013b38cU,
  0x3fc48f373f64ec74U, 0x3d9937d63f6bc17fU, 0x3f10a326bf1e4e01U, 0xbfa0717abd9914d4U,
  0xbe70b7783f3a7b18U, 0x3f3cb884bf8512fcU, 0xbf76014ebfad5725U, 0xbee42b86bf4d9980U,
  0x3e9671763f36c244U, 0x3f6d8335bf2c0bf6U, 0xbf1422f1bf08bfb7U, 0xbdc0cc6f3f9fb72bU,
  0xbfa604ff3e4f153bU, 0xbe51e8c1bd8f734eU, 0x3f8aa9fabea83724U, 0xc045b629bf96b152U,
  0xbfbd2d923f236ee5U, 0x3efc698bc0457f89U, 0xc04351a6c010ba12U, 0x3fe3872f3fd297dcU,
  0x3e41b43f3f179ad0U, 0x3f04c9cac0135755U, 0xc001cad7c03db164U, 0xc03cd1b23e6310bfU,
  0xbf391da6bfcfe57aU, 0x3fb3b63c3f32fabbU, 0xbf8dae643ecc86f2U, 0x3ed7b72dc0229dc7U,
  0xc01baa57bfaef845U, 0xbfa9b8a33ed9d61fU, 0xbed14b223c13e50bU, 0xbec4df1c3deaabbdU,
  0x3e95b525bf2da65eU, 0x3f53609f3e808a29U, 0x3ec94ff9bd2a877cU, 0x3dc0f4273f69dc16U,
  0xc00e3299c0276f15U, 0x3fc2f31f400134f8U, 0x3e6e112cbdec19f5U, 0x3e4750d2c00adcbbU,
  0xc0210819c0222b5aU, 0xc01232db3dd9f662U, 0xbf42495b3e4b7e81U, 0xbfcad80abf59a8eeU,
  0x3f713d963e936aeaU, 0xbf5245193fb95133U, 0x3fb10efdbeaa5c99U, 0xbe7108b0bf8c8cacU,
  0xbf7a4ce7bed36914U, 0xbe615312bedad7a2U, 0xbf9c22e2bf53e503U, 0x3f1a316a3fee0efeU,
  0xbfbd3db33e0fcaefU, 0xbf513145bd4524f8U, 0x3fc4bfc53ffa6987U, 0xbf00e19cbe47e0c7U,
  0xbc9d2c673f5c408cU, 0xbe1be367bdc7c499U, 0xbee07ce5bfd3319bU, 0xbfc70d4abf382cd3U,
  0x3feb96013da38d7cU, 0x3f86cde9bf333075U, 0xbc368a6bbf917838U, 0xbeac7714bee36eacU,
  0x3da272463d9409f9U, 0x3f99707a3ecf0f4fU, 0x3ecfacd73f0a43a6U, 0x3c95746fbd68f098U,
  0x3f1b16413ef5c478U, 0xbfd898e2c00125bdU, 0xbfc893e2bda7a25eU, 0x3fac15473f22ee2dU,
  0xbfa755cbbed72b05U, 0xbf98b2473eb4315aU, 0xbf734057bcfbcc62U, 0x3ef8c417bfa5b760U,
  0xbe04e6c2bf487abdU, 0xbea23b7e3f59192eU, 0xbf090a33be249c7aU, 0xbfb1d1353e9c746fU,
  0xbfbdfb873ce00243U, 0x3e630e963d994b99U, 0xc02104c13f4dc5c7U, 0x3e2ee19d3f1a38c5U,
  0xbfe289233ea85edeU, 0xbe81a26a3d279fabU, 0xbf37e438bf8f6558U, 0x3dcc908b3f0a286eU,
  0xbe5bbe0a3e2e2c27U, 0xbc8a2e5cbe787180U, 0x3cec60873f357aceU, 0xc0643684bf834e78U,
  0x3f4beaa23d981d7cU, 0xbd8ad0863f0b9011U, 0xbdac6387bfc720caU, 0xbee593d33ea80021U,
  0x3f11f24fbe6caab0U, 0x3e982827bfb2acf3U, 0x3c74b51fbfc0b659U, 0x3f050a1a3fa4ef26U,
  0xbe8dcb4bbd8c9897U, 0xc0243a5bbfb91df3U, 0xbea787b8bfce11a4U, 0xbf2df1e2bf13d039U,
  0xbf8e7073beae6b8aU, 0xbeebbfddbffe0c39U, 0x3fa4e3e6bfefd19eU, 0xbf331bb8bf97ac3fU,
  0xbdccc76cbf4ca7c3U, 0x39996f09bd324d22U, 0xbf98094abefb649bU, 0xbfd2b81c3e32ad94U,
  0x3f567c283b79a3c0U, 0xbf687c6f3cedd950U, 0xbfe2aa6dbf6d05b8U, 0xbea83b35bf7bf879U,
  0xbf13754c3cc1e934U, 0xbf818b823eb66f86U, 0xbe5429f5bec87565U, 0xbda273d63f5f72f4U,
  0x3f0a49a4bf42b915U, 0xbf83fe13beabf150U, 0xbd52f28cbe05386eU, 0xbf8fea953f2f7c7cU,
  0xbfbf8fadbd4dc5f2U, 0x3bc74665bf945e3cU, 0xc005e6e8bfbebd56U, 0x3eac24493e37e359U,
  0xbfef681cc041aafcU, 0x3f2c4a923ee25e96U, 0xbfbc7cb4bed448e8U, 0xbe8c36323fa527e7U,
  0xc0133ae53ea238fcU, 0xbf6dc2a7bea2c06eU, 0xc04abcf23d0172e5U, 0xbe1958debf4e9668U,
  0xc012f280bcd9f783U, 0xbda0d250bfa2922fU, 0x3ee3a8d7bf3546bbU, 0xbf52e68cbff2f8e9U,
  0xc0474c81bdfb1d6dU, 0xbe929307be513376U, 0xbf770bc8bf01706dU, 0xc000b4093e8e9206U,
  0x3f55f49abe302cadU, 0xbe31b5e63e46b2f5U, 0xbd8a0c89bfe716e3U, 0xbee76fccbee4cb73U,
  0xbd87cf77bf1c8f8bU, 0xbfe034833f116b6cU, 0x3e820f063e9b7519U, 0xbd8143d83f6dc60dU,
  0xbd9e37db3e572faeU, 0x3eacbe11c002fc9dU, 0xbd18ebf93ec216f4U, 0xbf9e7a07bf47c954U,
  0xbfb1dfcdbec30b2fU, 0x3e00734cbf26ebeaU, 0xbf5034e0bf331902U, 0xbf49cfea3da910d4U,
  0xbe1bf692bf96db16U, 0x3e032edf3ef04622U, 0xbf7d15443e1f5419U, 0xbf00000f3f8a0716U,
  0xc0019d663e21ab3cU, 0xbfd8a70abce0ce4eU, 0x3f7579643f273972U, 0xbf36a253bfc3358cU,
  0xbf062f1ebeb452b4U, 0xbf637da53f9cf2c1U, 0x3b814852bea89f5bU, 0x3e9c852abfe6909cU,
  0xbfc05b3ebf94bfb9U, 0x3e6c055440435ecfU, 0xbf5cd13dbfab4615U, 0xbf6943b3bfd41a05U,
  0x3d1ded553da7b511U, 0x3ca332793d3668cfU, 0x3de4e6ffbafbfa09U, 0xbe39ed553c1bca26U,
  0xbe1a912dbe476354U, 0xbdc40e91bd0609c5U, 0xbd5926f73e129c90U, 0x3ce851783d62f6f1U,
  0xbcadd6c7bdd4322dU, 0xbcd8c5f13d9008deU, 0x3a0867d63d9049e5U, 0xbdc132e3bc96711dU,
  0x3cea9580be530deaU, 0xbd34a63ebb4bcb54U, 0xbe14ae5cbdae9dcfU, 0xbd2eefba3dec0a70U,
  0xbe7b58d23d4c52adU, 0xbdbd4ebebdb75f24U, 0xbe19f4f0bde06207U, 0xbd2b343bbcfb73deU,
  0x3d7fa679bcbefb79U, 0x3c8e98dfbd8a31faU, 0xbe28aab4bd40b00bU, 0xbd4bf799bdf72022U,
  0xbe3d726c3d218ff1U, 0xbcbca3ab3e0996baU, 0xbd50ebcfbe00aa0fU, 0xbd7c03113d245e32U,
  0xbb8919aabc256013U, 0x3da546acbd38fea5U, 0x3d825f3bbe1bde12U, 0xbd2958ddbd6c1496U,
  0xbbf297183df03358U, 0x3f266152be1d4098U, 0x3e9a1e02be2e1f22U, 0xbf687b24be01fde9U,
  0xc0081c73bf4d00ddU, 0xbee4b9d7beef5c0aU, 0xbda45eef3ea26ea5U, 0xbd8c0a32bfc766bbU,
  0xbd103ae0bf42df34U, 0xbe925a3f3eb39f3fU, 0x3d94a69a3d8da5c7U, 0xbf9445b03f8c700bU,
  0xbfd8f153be5f6036U, 0xbec51f213f8ebf95U, 0xbf65c9603fd8c38dU, 0xbd2481d5bfdb9fa9U,
  0xbfb6aaf1bf33e783U, 0xbec39a343e5c8090U, 0x3f06c558c05bd9a4U, 0x3f27eaf6bfc01864U,
  0xbfe286c4bedd7b09U, 0xbf2cd60dbfa58136U, 0xbf592e2abf431a7fU, 0xbff8529cbfbac20eU,
  0xc097d8aabef7fe48U, 0x3f25b147be71d1a7U, 0x3ee1c6fdc0036c26U, 0xbf9bc583c021602dU,
  0xbf303d6bbea997fbU, 0x3f1e33d9beb84f74U, 0xc050d67b3f02af2cU, 0xc06169f53f5f8dabU,
  0xbf6067c63d8c8f6cU, 0xbec112d7bde070f0U, 0x3dc6f4edbf98ebe7U, 0xbf0684503e766e97U,
  0xbdf55c013f1f2c26U, 0x3d9d4a6ebe04b1d4U, 0x3da822bcbf8eda5fU, 0xbde23338bfac5e73U,
  0xbfb6e7b8be672128U, 0xbef5ffadbefeaa0dU, 0x3d2914b0be019ac3U, 0xbe51d691bd486694U,
  0xbf175ce03d08021dU, 0x3d17ba33bef05278U, 0xbe82c656bf097241U, 0xbf4c893fbf008001U,
  0xbdf3a1c5bdccab78U, 0xbf785ed6be3955baU, 0xbf74df393f08471aU, 0x3e2ccea5be940516U,
  0x3cd5b495bdb953e2U, 0xbe22e916bf1c2ce0U, 0xbf01d4b93ed8cfb4U, 0x3e3be8cebecfd557U,
  0xbefe4063beb4f30aU, 0xbf1ebc54bda3e2f5U, 0x3f057065befb5102U, 0x3e31d532bf466e4aU,
  0x3c6c2011bf041a66U, 0xbf25cc3bbebf0050U, 0xbedee9bcbe8747b5U, 0xbec0e07cbd1819edU,
  0x3c918f7a3e1bec2bU, 0xbc8fbc363cc40e40U, 0x3f0ebb6e3f78e09cU, 0xbe6751163dd69ef5U,
  0x3e7278a03f2e2fd2U, 0x3de390c6beb18923U, 0xc01b9a5bbfbcf823U, 0x3e90f32ebdf39ddbU,
  0xbf1998443ef0eebcU, 0xbfadaab8bd89c626U, 0x3e942f2c3f09fb30U, 0xbeaca7063e1afbf1U,
  0xbf27915bbf1afd1aU, 0x3bada9b5be9902f6U, 0xbec37f4e3fbd8022U, 0xbeaf9dc4bf29f101U,
  0x3f5db0c43f4c87a6U, 0xbf904622bfd14c5aU, 0xc0481c34bf767966U, 0xc0210b49be050790U,
  0x3e6de4bbbf42d37bU, 0x3fe926d23f5f0599U, 0x3f61523ebcbe9e66U, 0x3f440f0bbf703b50U,
  0x3dcce2b8bed91618U, 0x3ecb6fb6be87444eU, 0x3fa2cf59bec8675eU, 0x3e2c43613fb6c317U,
  0xbf014f98bfbc144cU, 0x3ec2445ebfdd31a6U, 0x3f33c9743c5ef467U, 0x3eaf93b5be656e9dU,
  0xbfecaea03ddaab45U, 0xbda154e33c1ea906U, 0xbfbc5a2ebe905978U, 0xbec5c7b3bf825658U,
  0xbfa7ee743d75a6c2U, 0xbf45faf63e59944fU, 0xbe4e1a2cbfc2c193U, 0x3d6e7cdfbfc31500U,
  0xbf8c6c713ef5edabU, 0xbe899347bfe50606U, 0xbda1eaaabf90d859U, 0xbf8669d8bf396978U,
  0x3e5ce7edbf44a71cU, 0xbe98c07d3e6ffe00U, 0x3ebae96f3e95bcddU, 0x3e8f1c4fbeda53edU,
  0x3f0b474fbf1e3720U, 0xbf71f392bf8c7eb8U, 0xbf9caf61bcf34dddU, 0xbe9b04aac00d0a70U,
  0xbed33d703e36d6dcU, 0xbf3ed890c0375450U, 0xbf28fbfb3d65f433U, 0xbeb079273f2cc447U,
  0xbd66d704be1765caU, 0x3e88edddbf888a22U, 0x3e0ae5e3be337b62U, 0x3e0d054d3cb13929U,
  0xbe9f1272be0ed1d2U, 0xbf7cf91bbfb6d5a8U, 0xbfa6c2103e29ddb2U, 0xbfba0e58be158c35U,
  0xbe6a8ceabd6d2c7cU, 0xbf07356f3de3cd8eU, 0x3efd8bd2c0327f78U, 0x3fc6c791c01af659U,
  0xbe1fa365be985ed1U, 0xbfe81552bdf7f2caU, 0xc01b22983e078aafU, 0x3e840aa1bf6a8e28U,
  0xbebf5eaabe43c1deU, 0xbf2b713fbfc92eb3U, 0x3ddef7663fb8c69dU, 0x3dd9ed27bf9d160bU,
  0xc0191926bdbcb827U, 0x3f1c5ba53f35e697U, 0xbfcf6fc13f37338fU, 0xbf8e6b12bf5bfe37U,
  0xbde36631bfbe018dU, 0xbda2ef98be8c9452U, 0xbf0f625cc01fceffU, 0xbf38879fbee52299U,
  0x3eb16f1ebf29522aU, 0x3f1560a63e733d0fU, 0xbfb9c7643f61d3eeU, 0x3f783a9a3e448685U,
  0xbf7be518bf32de6aU, 0xbe082346bec523c8U, 0x3f4e9dcd3de4d052U, 0x3d8246933e8dfaaaU,
  0x3e3f7a3cbc17b7f5U, 0x3b41f96ac00d2c28U, 0xbeeb9be7be02ae14U, 0x3ec7d4e53f343883U,
  0x3db7ad8f3d7c5fa6U, 0xbf431c1e3d9e2506U, 0xbf44d6ff3e8c1f87U, 0xbfa4f80ebed68acdU,
  0xbe9536993e84eae9U, 0x3e4be4a6be45fe15U, 0xbe2bd7283e82a442U, 0xbc8f62aebeccec7aU,
  0xbebcda6e3e8e5c60U, 0x3c3b0d26bf61161bU, 0xbb604abcbf15b14aU, 0xbe158702bf195e37U,
  0xbf38d96fbf289dc3U, 0xbf333b17bf9080c8U, 0x3ed253993eb48c2bU, 0xbf10dc2a3f4fc4acU,
  0xbfb4aba9be7f2ceeU, 0xbfa4faf9c0232676U, 0xbe2295843d8c993bU, 0xbe3c8800be7cb6c5U,
  0xbef63dd3bed0d4c1U, 0x3f0cc7273df900f4U, 0x3ea62794be3f81a3U, 0x3e78ed75bf3b2668U,
  0x3f2edc7abf07204fU, 0x3ee1e6e13eb70433U, 0x3ef0ff4c3f0b21a2U, 0x3ef3cd663ec92daeU,
  0x3ecd6c9bbf598f71U, 0xbdd62666bf11175dU, 0xbe1430fd3e91b6dbU, 0x3f684dcbbf0d88adU,
  0x3f848ba33c19ca24U, 0xc0217e27bc6c7900U, 0x3e94f7f3bf39e213U, 0x3f828231bf96db7aU,
  0xbfa5a550bf5b2f1bU, 0x3f8e7a00be3e51e2U, 0xbc26b6ffbfc76a8fU, 0xbdb28da93ec66dc7U,
  0x3f7477cc3f55a1a6U, 0x3ee06304c00c73caU, 0x3d9bc97f3f1db5abU, 0xbf38cd58bf497d71U,
  0xbef6cb1fbde07a33U, 0x3efcddda3efdc5bfU, 0xbf85d5ac4057aa4eU, 0xbe531db1bf1efaacU,
  0xbe2ca77f3e87c908U, 0xbedabc2abf51669eU, 0xbf02624fc027b6cbU, 0x3f668cc03f6988c0U,
  0xbfa3c6993ee99e7aU, 0xbe2da56dbfe2aeb6U, 0xbff5ae0ebf1c0587U, 0xc01504bebe68181eU,
  0x3f211aa4bf01bba4U, 0xbe8afd323decb79eU, 0x3f10affa3ce3a97dU, 0xbf9b1ea8bdbfe3bcU,
  0x3fc4a5633b8dc658U, 0xbf18b4bfbfe90a8cU, 0xbf088ebcbedf91acU, 0x3ee870233eb04922U,
  0xbf6f40b9be30dfcbU, 0xbfcf3e1e3d0eae6eU, 0xbdb6078cbf1b4612U, 0xbf8b2fe4c0425bc8U,
  0xbec8ee233ed93097U, 0xbfa987e8bdbc3b73U, 0xbea75aadbf33a052U, 0xbda8c8583d1e0a01U,
  0x3fbb8fbbc002b520U, 0x3f8b4e76bf582d33U, 0x3da60961c0053e02U, 0xc0ed56e9bd6a5e22U,
  0xbee99081be3ed684U, 0xbf7c883bbf09bafcU, 0xbf64bbe0bec21be2U, 0x3f830cecbf106298U,
  0xbf252423bfd2c858U, 0x3f7f75f83f784a99U, 0xbfd6e786bf33dba2U, 0xbf5e2efb3fa86a1bU,
  0xbf5059aa3f71e052U, 0x3d6a41463f14da48U, 0xbf99742cbf0db472U, 0xbf31831abf46d4f4U,
  0xc02d14df3f2b3fe5U, 0x3d324b013faf0155U, 0x3f69444e3e3451daU, 0xbf2fb668c031c4bfU,
  0xbf9835cbbfd06eceU, 0xbe33ffb0bfe2e70fU, 0xbfcf56f8bf4761c6U, 0xc070ca0ebf03fe40U,
  0xbec30604bc9abb82U, 0x3f906de63d17307cU, 0xbe523682bfb15f8bU, 0x3f014762bf8d7345U,
  0x3f4fe70fbf0db20dU, 0x3f5deebabf826b2cU, 0xbd672298be3973feU, 0x3d8c3599bf846f0eU,
  0x3f09cbec3dc81a6aU, 0x3f2e53403f20a255U, 0xbce624febfeface3U, 0xbdf203cf3f7dbc00U,
  0xc00b4bea3e223ba5U, 0xbf518bb03fa511cdU, 0x4015e91240198e74U, 0x3e7ba434be1c94fdU,
  0xbe927bf03fa3c240U, 0xbf680a7ebdbfaf31U, 0x400cfe7dbfd0ddc6U, 0xbf78ecdebdd0bd62U,
  0xbfe1ee823f083ed8U, 0x3ebfef2fbfaf886cU, 0xbfa25016bde91aa9U, 0xbf9e29cabf8780f1U,
  0xc02397893eded749U, 0xbeebd3e53fbdd96dU, 0x3cea52b6beee5b6bU, 0xbfd99c013e580b11U,
  0x3fc8154b3fb77ef7U, 0x3dbe6faebe2f3b52U, 0xbe78ed493ff9639dU, 0xc048b5fc3f42eae6U,
  0xc0750333bd7ba7c4U, 0x3e9b1cb93d4aa260U, 0xbf8be8d7bf607ccdU, 0xc005d59e3fb63f44U,
  0xbfbf67483ef3eca9U, 0xbe9840f0be049152U, 0xbebdad5fbee601d2U, 0xbd5bf4cb402434f2U,
  0xbdcfbbd0bd8e876eU, 0xbf452ee1bf824dd4U, 0xbdc0ace2bfb4e7a7U, 0xbfe9238fbeb5cf72U,
  0x3f50c4e2bd90155aU, 0xc060e3e93fe0b9c7U, 0xbf8d7526bf50efa8U, 0x3f59da4ebdef3ee9U,
  0xbfd3e97abf5dc6fdU, 0x3f2f31bdbf3dd084U, 0x3da9d4053f0b9bd7U, 0xbfbfdd23c014e8ceU,
  0xbf3234693f24aae3U, 0xc017e6dac01a91b9U, 0xbf989bbfbf31b448U, 0x3d2a9296bff1d1f3U,
  0xc000b520bfcc4b9fU, 0xbea9af433f1f79d9U, 0x3f3c7414c036ec76U, 0xc018f57cbfeb5bd1U,
  0xbfc01ae5bfaf9805U, 0x3f8dbcb83eb0d7f3U, 0xc04656a33deae0a7U, 0xc048c996bf70d917U,
  0x3f2b115e3c397aa3U, 0x3f41b841be573a8fU, 0x3e3c30e4be442e58U, 0xbfe223f5bfad4bc0U,
  0x3e0478f2be0acb2bU, 0xbf09f5e3be093b6bU, 0xc0214b72bf1459a3U, 0xbe24efe2bf29b7e7U,
  0xbfb14cb8bd92b59fU, 0xbe8b3c23bebce246U, 0x3e1376513f21264eU, 0x3f646af1be0bcc3fU,
  0xbfd1b7b73ed85db5U, 0xbf33d846bf4da19aU, 0xbf69c4503f634744U, 0xbf2927a4bdcc6dffU,
  0x3ef2a93c3e9eb33bU, 0xbf805d66bce73c26U, 0xbea3a049bf8eccd3U, 0xbf891f92bf545f48U,
  0xbec67d25bf8aac10U, 0x3fb433e93fc0f17eU, 0x3eced29dbf09f150U, 0xbed770cabf6a0651U,
  0x3f13d20cbf889f9bU, 0x3f51e0e23f1a5aacU, 0x3f252a99be5d50adU, 0x3f225c093f243de9U,
  0xbf670e92bf0ee9d7U, 0x3e9bd68a3c7863d0U, 0xbca52908bde5005dU, 0x3f639003bef6ec69U,
  0xbf785104bdba4b07U, 0x3f04bfb23e46f203U, 0xc007d749bf020727U, 0xbf88bf533f450368U,
  0xbd0bc25c3f2c2c6eU, 0xbea928023f76a785U, 0xbb4994d3bf944969U, 0x3ee2a72abf91521cU,
  0xbf369367bf4a4f75U, 0xbf760aca3f975eb7U, 0xbda1b668c0510f48U, 0xbe10d28440057628U,
  0xbe1a3b8f3e7edea2U, 0xbfa9fc02bfb7d5a7U, 0xbe70d2713f04a35bU, 0xc00f45fb3f8bce85U,
  0x3f5a5155bfa16426U, 0xbf180cd3bf042b97U, 0x3faa83fdbe7d6369U, 0xbf830066bfa5d8f7U,
  0xbf70eeb3bc26e2eaU, 0xbfedee7fbe4d4b30U, 0xbeeceecbbed29d49U, 0xbf89818dbf21fb78U,
  0xbea53eaabdc404eeU, 0xc0138e4c3ea6307dU, 0x3fb5d01bbf7afc38U, 0xbf66b6cbc019d825U,
  0x3ea570093f4b816eU, 0x3f3f562140293e38U, 0xc00e0e2fbf0237f6U, 0xc0129e103e90f83dU,
  0xbf4b94ebbdf99c09U, 0xbd0805adbe19cb8aU, 0xbfad87733eab973fU, 0xbfcc0410bfb1983cU,
  0xc0067e9cbe9d0257U, 0xbf2ff8d9c0001364U, 0xbf39d3553f951c73U, 0xbecd4d81bfa08f89U,
  0xbf346487bee3ce2eU, 0xbf5560aebf193319U, 0xbc83d33e3f9f668fU, 0xbdc5adf7bba752aeU,
  0xc01c73514001a63fU, 0x3f564dc83f867ab1U, 0x3e23c67d3fbdc6b3U, 0x3e9e047c3fe02365U,
  0x3cfb445cbee592b7U, 0xbe6aa9513e9bff14U, 0xbfb30c42bf92c200U, 0xbebe413dbf296a1fU,
  0xbef20d68bf323f4fU, 0x3d499a9ebf36eaadU, 0x3f7d90163e872105U, 0x3f6c2b543fa410feU,
  0x3f8f77dabf8c4facU, 0x3f1f4e473ef92b30U, 0x3f23019b3f82fa9bU, 0xbf1e443a3e761b39U,
  0xbefc5fcfbef48b68U, 0xbf5d2b9ebee4b8d3U, 0xbd6f6b30bfa08773U, 0x3f2d53cabf6deb92U,
  0xbf79fe23be41454dU, 0xbebb4a993de45457U, 0xbf47ffa6bf1ead18U, 0xbf88ae7ebfe70b81U,
  0xc04211e3be9ecbf7U, 0x3e9f4c48bea3ef18U, 0x3d8f3deec004d519U, 0x3e874d55bfc06589U,
  0x3f19d6e4bfe2ad54U, 0xbf953d45be3fe089U, 0xbda681f5bf870fa2U, 0xc04360b6bee127bdU,
  0xbfb2c7d6be859536U, 0xbf292a0dbf194e4dU, 0x3e8ea679bec4e95bU, 0xbf9bbca2beaca90eU,
  0x3d979b2b3e564ac3U, 0x3f8d6955bcb2db82U, 0xbe189ab6bfa92e13U, 0xbd9c71243ef33af9U,
  0xbf327494be110534U, 0xbfc6cb6bbf85e6deU, 0x3d8ffd6ebed4f07cU, 0xbed0cc203f0f0f31U,
  0x3cbab8643e8837c1U, 0x3d662206beea6693U, 0xbf3fe74e3e0f721dU, 0xbf11248dbeb73660U,
  0xbf58b468bf0b1a54U, 0xbfda7184c077ee32U, 0x3e81c586be4ac8fdU, 0x3c5a6d74bfa8efe7U,
  0xbf4d1bc23eaa21fbU, 0xbf976bc23e34b281U, 0xbeb35ce4bddc1801U, 0xbf08b586bdf8cd71U,
  0xbf1ab11abf3e5a56U, 0x3f82ca303f049c1aU, 0xbfc0d7813c63f312U, 0x3eb6cf76bfd4214fU,
  0x3e016bb7bf07de9cU, 0xc00b7d5fbf8db648U, 0x3ecba513be057c04U, 0xbeec1b1ebcb41a63U,
  0x3e55f521bd57a4bdU, 0x3ef4cde83ed51ec5U, 0x3e1dafcebe9a5472U, 0xbf3872b03e909c1cU,
  0x3c04fe9d3f763079U, 0xbe8dba65bec5660dU, 0x3f083966bf53ffd4U, 0x3ddc0e1a3de484daU,
  0xbfbc457cbf9fed05U, 0x3f61d2d23eb5b35eU, 0x3f2aebd1bf8af77cU, 0xbff63c4ebe4d6247U,
  0x3eb31cb53e0c4242U, 0x3d9b75023ed3558cU, 0x3dc2c8a3bf3da417U, 0xbf210645bea5d203U,
  0x3cefdb65bec12a9bU, 0x3ed580aebeddd38cU, 0xbf27a511bf018cb1U, 0x3ed59614befe62f5U,
  0xbeb12b9fbdc084ceU, 0xbff022363e40d455U, 0xbec7649fbf07b8c5U, 0x3fb5ed93bf1b8d58U,
  0xbe2e42aa3e854fb6U, 0x3e4b10d83dff5575U, 0xbd52121ebf27419cU, 0x3e002c4abe724b62U,
  0xbf9da088bc2c8e75U, 0xbded6e5dbffad5a9U, 0x3d34a958bee491efU, 0xbf1da7773c9e986fU,
  0xbeb205d4bd8909c9U, 0xbf0d6c90bf81f670U, 0x3d731685bfbe23bfU, 0x3e872ec7be646f4aU,
  0xbef83568be8a5fa0U, 0xbf335258bfb55b0fU, 0xbe1907cabe007845U, 0xbefd683c3e3db9cfU,
  0xbec50301bd3057c3U, 0xbf3876b8bf069c17U, 0xbed75922bd30d420U, 0xbe1fcfc4be289b4fU,
  0xbf25614fbf9e8278U, 0xbeb1b28cbe76692aU, 0xbcb19c08becadb90U, 0xbed9203bbeb70c66U,
  0xbf00477b3f549eadU, 0x3d3564ed3dfa6c78U, 0xbc5a283bbef45506U, 0xbe40159fbfe82862U,
  0xc0226206be02e115U, 0x3e0d88e4bd60aeb5U, 0xbffc5e70bff1dc23U, 0xbe4a54e93f19c1d6U,
  0xbfac35b5be963ee9U, 0x3d962108be7d489eU, 0xbe2c39edc00223bfU, 0x3e8798d3bfe4fd6bU,
  0x3eb7567d3e60f1c2U, 0x3f0eb42cbece3387U, 0x3da8df5b3cb7118dU, 0xbf815cab3f9a3b21U,
  0x3e10b7e33ecb3f12U, 0xbef4d51d3f94c74aU, 0xbf465521bf5fa813U, 0xbea89da0bfc7c940U,
  0x3fecfd48bfdcc852U, 0xbe014b69bf8c3e30U, 0x3c98b6adbe53837cU, 0xbe658255bec5a499U,
  0x3d52a61c3dd310d6U, 0xbff27ccdc0037257U, 0xbf21f1873d821bedU, 0xbef3df7dbfda2371U,
  0xbf21ee93bf56129eU, 0xbf7aa4f2bf2fe21dU, 0x3e6baa92bf91d39aU, 0xbed112d6bf6a0408U,
  0x3d7647e83eab14b0U, 0x3e1e9ab2be274196U, 0xbf99aed7bef4b471U, 0xbea059f3bdbe8145U,
  0x3f7359953e061811U, 0xbf33b0973d32e099U, 0xbf49b9fc3fb360f4U, 0x3fccff753fe47c37U,
  0x3d891e97be0d147cU, 0xbea5ab283ed46d75U, 0x3f4e98c0be4a1fc6U, 0xbe765d77bfcd2349U,
  0xbda6daec3cd4740dU, 0xbfbb9641bd1a3fe7U, 0x3e539dc03cf684a4U, 0xbfcef9adbf82d7aaU,
  0xbfb588ab3f4a87dcU, 0x3eebdb3c3e48a985U, 0xbf7906643fbc0ed8U, 0xbe8736a2bf369d23U,
  0xbeef8a61be5f93edU, 0xc058d8b8400fa858U, 0xbff747593fec2f02U, 0xc05597993e7e4d6dU,
  0xbfdc0c11c0234d1aU, 0xbd10cedbbe917e59U, 0x3ed7f4423f3e3f30U, 0xbe305a2b3e12b507U,
  0x3fb0dffcbe71dc33U, 0x3e537374bd83c476U, 0xbfdb8ce8be28da31U, 0xbf200a32bfba7338U,
  0xbf8fff37bd2b52beU, 0xbf8982cf3f6b4b1bU, 0x3f7bc220beaf52acU, 0x3e35b6cc40011b29U,
  0xbf8c802ebe2bcb56U, 0xbebac5833c0e9a8cU, 0xbf0b451ebf8bf4e1U, 0xbf8a844d3d9d984bU,
  0xbf750753bf55364aU, 0xbfc99110c00e88e9U, 0xbf867701c068c728U, 0xbe6fe399c006074fU,
  0xbfcce534bddc132eU, 0x3e61a9f7bfba97baU, 0xbe5c86c1c0b95d76U, 0x3e240f3c3f058d98U,
  0xbfa859143eb3861fU, 0xbba33ce4bf4d5284U, 0xc009290c3db6c125U, 0xbea1e99c3f188cb8U,
  0xc007eae2bee1280dU, 0x3d7b85403fa44d8bU, 0xbfa5a778c00a87aaU, 0xbd5e9a6fbf89a415U,
  0x3e24f6103dcc41f8U, 0xc026db49c0c94a27U, 0xbf5caa213e700692U, 0xbebb97273effda03U,
  0xbf040f643defc295U, 0x3fd6adcd3f477e97U, 0x3ebdf7253eff1492U, 0xbfb45e1ebec2c181U,
  0x3ed49504c0069632U, 0xbed178793f6a9510U, 0xbe6ad4a0bf2e9cf1U, 0xbee0f3fdbf2369daU,
  0x3eefb17cbdb4096bU, 0x3e3f722abdfaa008U, 0xbf1f13633f185440U, 0xbf15bc78bf9a325dU,
  0x3ddc28553ebb13a0U, 0xbf3c202a3da93228U, 0xc01cede7bf99b3f2U, 0x3ddd06b33eed3bf9U,
  0x3e062f6c3db27296U, 0xbfa609a1bdb4309eU, 0x3dc4a64cbf4a1315U, 0x3fb666283f56edbaU,
  0xbe6c498e3ea1fe75U, 0xbef46c2d3f208f5bU, 0xbe19e2f83de0884aU, 0x3f2ed2c83f0c4052U,
  0xbf23b404bf6409daU, 0xbe869ba53dcf18c1U, 0xbf41e6e5becf19f8U, 0xbe7cb7353e606fcaU,
  0x3e92f2fbc000e53fU, 0x3ec0efae3f91e74aU, 0x3db9c7e3bf68aaf8U, 0xbfbb5c393ca1d750U,
  0x3ed294a63f421fd6U, 0x3e1dbb92c00001ccU, 0x3d9b18c5bf1d2820U, 0xbf9682c13f761546U,
  0xbe7c77b03f17f20dU, 0xbf1cef02c02d6dfaU, 0xbdc94a9b3ecc0553U, 0x3ea097c13eb04d4aU,
  0xbe76b4293e07c8c5U, 0xb81350cfbde81a94U, 0xbcccfb46be6a6fc3U, 0xbe847701bfa62aa9U,
  0x3f270fe83e601b63U, 0x3ed1d2f8bf256726U, 0x3e84ded6bf61026fU, 0xbd003e86bf0ff5caU,
  0xbef65b56be9bb484U, 0xbf94161fbf48cd46U, 0x3dcf272dbe99fdf3U, 0x3d1079f43bf841feU,
  0xbf39552cbe5bc2f8U, 0xbf0cf78ebf39f6feU, 0x3d6decff3db29629U, 0x3e418b60be303740U,
  0x3e070c16bee15d19U, 0x3efc0548bf5adfdcU, 0xbfeb74d6be291ef0U, 0xbf3b09c93e23be98U,
  0x3ca017d43d8fa703U, 0xbf9f3808bfd988d0U, 0xbe397a463df13dadU, 0x3ea1d959beaf2be1U,
  0xbeb134eabf4bc41aU, 0xbf1468aabf67b7f6U, 0xbe8025bbbce477dbU, 0xbec4672ebe7d8cdaU,
  0x3d697ba63ee2d3b7U, 0xbebf5d7dbe2d07d9U, 0xbe67872abe8b10c4U, 0xbf44b9a83e1e429eU,
  0x3ec2ce2abe2e35c2U, 0xbf24c9e93e9c67e9U, 0x3e0aea99bed3a5e8U, 0x3c1660b6be7b3062U,
  0x3e8f449dbdc39c6fU, 0x3e4b73dcbcfe57b5U, 0xbf0789dfbe2ca5bbU, 0x3e3832e4bee29790U,
  0xbea3b892bd3d1b3cU, 0xbeddfa78be9c7b1cU, 0x3df212adbf0213daU, 0xbd06cfe9bead4f3bU,
  0xbf55488abe63d701U, 0xbea05e89bf7ae43aU, 0xbe1aa1c1be53028bU, 0xbf30823cbea5767eU,
  0xbf282024bd97d1f6U, 0xbee3aea8bde5345cU, 0xbe6daad0bf60283fU, 0xbf07ae12be78e37dU,
  0xbf14d4a4be5333d2U, 0x3e36dbf93ec264b8U, 0xbebab439bf14ecd6U, 0xbf19c7463da55f87U,
  0xbe2e8a29be76dd67U, 0x3ec740ef3e5e8f8fU, 0x3eb967193c972fa5U, 0xbea2a4ed3e7d8a53U,
  0xbeb8c7883d9c88c9U, 0x3f0f2e79bd235741U, 0xbe86406b3ce80cb5U, 0xbe4d2e403af51b00U,
  0xbfa352583d9df662U, 0x4002c057be8e408eU, 0x3de7b8a93f7fc2b3U, 0x3fa9f87bbf9147e8U,
  0xbf5802423edf9c22U, 0x404eccce402c055dU, 0x3ed143f93f93642cU, 0x3ed593763f525143U,
  0x3f463340bedc17fdU, 0x3f80547ebf81e2e9U, 0x3e48cf073fcc8abdU, 0xbfbc1ccc3f55794cU,
  0x3f77860e3fad3ca4U, 0x3f21fc1e401d0873U, 0xbd9956bf3fb2e7d7U, 0xbf538c2e3fac2694U,
  0x402585dd3e0d53c0U, 0x3f7d192940181a64U, 0x402b9538bfc11766U, 0x3f2ff089bfb316b6U,
  0xbf35d4333efdc9d0U, 0x4039e5523e89fe11U, 0xc088d7503f3e3acdU, 0x3ed63f24bf5998daU,
  0xbf40dbebbeb5082eU, 0x3f19478f40766fceU, 0x3f4d83513f309e78U, 0x3f2a1ced3f75e074U,
  0xbe796017bf341f19U, 0x41346b21be81e0d0U, 0x3ecc867bbda10d1dU, 0x3e0c7c9b411f8647U,
  0xbf899435bd4678faU, 0xbf28794bbe0247a5U, 0xbe6de89d3f8d7c1eU, 0x3f2f721bbf6d114cU,
  0xbf99b7ddbfe685a4U, 0x3e8946c0bf222889U, 0xbf3b72cbc0a432b3U, 0x3ed59d8a3fe4c5a6U,
  0xbff13e633ef56a2cU, 0xbeac4049bf88852eU, 0xbbf6d0eabe59d411U, 0x3fb005cf3f752972U,
  0xbd020d82bf009cbdU, 0xbf8aaf80be218d64U, 0xbfd0500dbfea989fU, 0xbf913ff4bf5aa3abU,
  0xbf66b935bfc16cccU, 0xbf1ca8cd3e8cfdd6U, 0xbfd6d51fbe6ccdffU, 0x3f1ec54cc025ea4cU,
  0xbeb3dd6bbf71cbfcU, 0xc0083af5bfaa7b15U, 0x3f4c51783f149bf0U, 0x3f858ca8c005564aU,
  0xbdde62aebef846c9U, 0xbf6f7f8a3ea301c7U, 0x3ef3213abdbc08bdU, 0xbe93556fbf390af4U,
  0xbf02806dc049587cU, 0xc09e0570bed8dd24U, 0xbf4245df3f940a07U, 0xbfb1eb82be967183U,
  0xbc9353783d1b9740U, 0x3ef3a9773ab8f956U, 0x3e825e34bde65239U, 0xbf940f92bf358fdbU,
  0x3f63d3773e208d4cU, 0x3ef5d9b53ca56b6dU, 0xbf9a4a33bf2fd13bU, 0x3e1e47403faf61f8U,
  0xbf0ece85bf1d33edU, 0xbe2263003e93f910U, 0x3d20a9313f034616U, 0x3d688114bd998defU,
  0xbf4be00f3d96cd24U, 0xc0282356bf159fd8U, 0xbde803ecbf46a7d8U, 0xbf293a613ed2b7f3U,
  0xbf551852bfa1398dU, 0xbe8b57b03e8a901aU, 0xbf1850773f878f04U, 0xbf1b6089bddfe927U,
  0x3c2392d1bf724cf0U, 0xbe399b693ec35866U, 0xbde59601be196ecfU, 0xbf0ae0e6bfd3ad3eU,
  0x3dc2a000be1b4601U, 0xbeb1f1873f9a1d43U, 0xbf9cbb1cbfee2d8cU, 0xbe33dd7cbe9e9ee8U,
  0xbf0c32de3f110a5eU, 0xbf69576dbd1befe7U, 0x3e245cf0be91ce60U, 0x3d8dd9ee3cd7418cU,
  0x3df82418be89e80aU, 0x3ddf8ceb3c149578U, 0xbf3e9be8bf0f6cc6U, 0xbff815583e776476U,
  0x3ec64b2f3eca0c37U, 0x3db52d51bf31dc19U, 0xbfc5f368c00d23b7U, 0xbd9a83123f5c5246U,
  0x3e994af43f31ccedU, 0x3e109a65bfb8be6cU, 0xbe14735dbe958b85U, 0xbfb6fcf5beb8277cU,
  0xbf00d1c2bf645b5cU, 0x3ecbda753f8dbf24U, 0x3cf11ab83f799f72U, 0xbead4bff3f58da5aU,
  0xbea0b0e7bfb6b8eeU, 0xbee8e528bf1a54f6U, 0xc03780c7be3ea016U, 0xbfe12b08beae5558U,
  0x3e12ae7c3ef6be31U, 0x3f25305cbf74ff72U, 0xbe3a0883bf75bf81U, 0xc00099ddbf85e82eU,
  0xbf93a616be8bad7bU, 0x3f3607f83f0d7469U, 0x3f38de81bfa83ffbU, 0xbf376e23bfff7039U,
  0xbf796348bdfb2bb8U, 0xbef9945c3e95ffb1U, 0x3e27c42d3f2f57ddU, 0xbede9741bf97c0d0U,
  0x3e8bcee2be0c8609U, 0x3f639b66bdab1f3cU, 0x3f4c5c56bfa84dffU, 0x3fa73cf23f933720U,
  0x3f060f36c0174669U, 0xbfcb74223ef4cc45U, 0x3fadc31a3c77beefU, 0x3dd8aac23d73fa92U,
  0xbfbae4df3fd17e6eU, 0x3f78b59bbff437ccU, 0x3bac7ae6be9ea17bU, 0xbd108fa5bfdb3b8cU,
  0xbe9113913ee88c44U, 0xbeb840a64052010aU, 0xbec6f244bfc30045U, 0xbe9da033405452d2U,
  0xc08b13e53fe3f0baU, 0xbf15bad44059dc97U, 0x3e98bb9ebf0801dbU, 0x3ee23962bcecd06dU,
  0xbec882f53d9423a9U, 0xbfa8632a3d28672bU, 0x3f633c4c3e88c321U, 0xbede5c633ec3d1e9U,
  0xbf7dfb9840590c37U, 0xbf8fa722bff47e6dU, 0x400c3298be83fba9U, 0x3f86204c3f47a788U,
  0x3f668029bfb64e04U, 0xc08509803f1c8d22U, 0xbf9e495f3f4c5c55U, 0x3e5b636040009d1eU,
  0xbf8dc2eebda1380aU, 0x3ef7134b3d99ee7eU, 0xbf62717abecaa9adU, 0x3eaf76a8bfd2048cU,
  0xbf89e97a3f9f6ab2U, 0x3eae860a3ea42a46U, 0xbfa61cacbf1cfc2fU, 0xbe77f5803f15be03U,
  0xbe7063523ed91853U, 0xbf3fd982bf912099U, 0xbd68b631bfd269a2U, 0xbf639b75bf4e2451U,
  0xbeaf43773ec94f71U, 0xc0833ad13f5e7bb9U, 0x3d0f3d613f149490U, 0x3f517ad93fe94d3fU,
  0x3ea8e8d5c027ba73U, 0xbe4e35ffbf973ed4U, 0x3f8170f43f054bf6U, 0xbf022af03d622f44U,
  0x3f9396bcbe541a29U, 0xc002438ec06113feU, 0xbfe55addbee519b1U, 0x3e46d8c9bfc823c3U,
  0xc09462f4c008339fU, 0xbfaa818d3fe6c547U, 0xbf9b7723c0219862U, 0xbf9da1fec007334fU,
  0xbf5bc317bfb21d45U, 0xbf0c1f813e3a75dbU, 0xbe4806a93f8462f6U, 0xc02fe6f4be9c174aU,
  0xbf90fab53b7c5b7dU, 0xbf63a1f9bc74b8f5U, 0xbf44812cbeeafa92U, 0xbdcfca6ebf4ee274U,
  0x3e6aecc93f21eb69U, 0x3ed0ec76bea21cf3U, 0xbeb6a3e53d52857bU, 0x3b10c05f3f5a9571U,
  0x3d465615bf9eed06U, 0xbeea999bbffdf00dU, 0x3a30b46ebf1a7e3cU, 0xbf7ab682bf3a86c3U,
  0x3e4aa37cbda5ef48U, 0xc01211573e169727U, 0xbe40614dbbb1f5a9U, 0x3ece5101bf12f796U,
  0x3f2da4ad3e1d944eU, 0x3db697efbecc6a44U, 0x3f9d51ffbd160939U, 0xbfc8ce7abedd866bU,
  0x3eec750c3ecf8c39U, 0xc00f64d6bebc8632U, 0xbff619bfbe0f396cU, 0x3ef253e73e1ee6c8U,
  0xbf80eac2bf8eea5cU, 0xbf23b3403f58363eU, 0x3efac50dc04ceb1aU, 0xc0154938bf834e55U,
  0xbeaac790bf34919eU, 0xbe50e474bfba9564U, 0xc008ae73bee103aaU, 0xc00dc073be9742c8U,
  0x3e45c369bcac74ceU, 0x3d621d0c3d196054U, 0xbe22ea5dbf577d95U, 0x3da9c64c3f0f7046U,
  0x3f80c45bbd9f66ceU, 0xbf67eb053e2a0c27U, 0xbf720b1a3e3e91fdU, 0x3e889a4c3eedcbe0U,
  0xbd790a15c00444ecU, 0xbff8f4f1be79e435U, 0x3dc4e4323f6a222eU, 0xbee0124ebeff2ce2U,
  0xbf88d985bc219dffU, 0xbf0a864b3f9c6461U, 0xbfb179363f1e3773U, 0xbf27f867bf832a4cU,
  0x3ee639833efe3224U, 0xbf843c403eee8446U, 0xbff4a9d2bf9ad67dU, 0xbef8cc91bf470755U,
  0xbf383f09bfb92ba2U, 0x3f5952123f11344bU, 0x3ee4db45bf7753cdU, 0xbee946b33ec57580U,
  0xbc2cf4d3bf373efcU, 0x3eb58e4abe3eda86U, 0x3ee1a134be694ecfU, 0xbf1737fd3c963065U,
  0xbd4787983e14d7c0U, 0x3e9e7a34bed9cc8dU, 0xbf3891673f654067U, 0x3db1d7133f483f23U,
  0xbe0de44bbdcbf95fU, 0xbda1c24c3c2264e4U, 0xbdda89c8bd3e0d6eU, 0x3db6ab0d3c3e6180U,
  0xbd4805b1bdd9a2eeU, 0xbdaacdfabda32162U, 0xbd86e165bd6ae2a8U, 0x3da78ea4bdc187c8U,
  0x3c9554abbce5ea11U, 0xbdb10c973db4ce53U, 0xbd892bce3d87a1aaU, 0xbdac925dbd8580cfU,
  0xbe14e302bc16cd81U, 0x3d4521303c7b7d8dU, 0x3d5d45653b9f99e2U, 0xbd009aacbc024ff7U,
  0xbdf1df38bdf4f505U, 0xbdb2fab1bd31372eU, 0xbdd24584be0d8aedU, 0xbd5d959bbde3df77U,
  0x3d48ecb33bdea9f4U, 0xbdb57452bd86029eU, 0xbd86b976bd51e3f3U, 0xbda486cf3c4a6ea4U,
  0xbdc5ade7bd808da6U, 0xbd6bfa1bbd6291b0U, 0xbd6cf908bd522b50U, 0xbdf9c65fbdf2443dU,
  0xbd930e003d11dabcU, 0x3c9da6663930e2c3U, 0x3c84f606bd378b1cU, 0x3c2e8efbbce4168aU,
  0xbe42689a3ebb5482U, 0x3e3ee9ebbd980723U, 0xbfab889c3f185c46U, 0x3ef560333ee35bfeU,
  0xbe6b533a3f70f04dU, 0xbf2359a83dd549d1U, 0x3f449fa63ea88bbaU, 0x3ce6f555bff1c48dU,
  0x3e063ee8bf915647U, 0x3e9f2c9f3e2c5858U, 0x3e92e880bf1e1cecU, 0xbf2bdb633f98c1c3U,
  0xbee9d5a7befe24e2U, 0xbfe3e2e4bf78600bU, 0x3e0d46c93f63cbe3U, 0xbc4fd23f3d67ef88U,
  0x3e9f2f713ebe1ed0U, 0xc00b3b99bf5e8050U, 0x3fc6d945bf63df76U, 0xbf889cd0bcb5374bU,
  0x3ef395f43eb90349U, 0x3f67d91bbe1d1ff7U, 0x3f574e2bbedd960aU, 0xbf81a4d5bf20f018U,
  0xbebeb691bf1ef058U, 0x3f0b70193f1065c4U, 0xbea57456beca9dceU, 0xbf415f313eacf74bU,
  0xbfc6825c3f51513dU, 0xbed6c312bc28bfddU, 0xbeb751073f0ce38fU, 0xbe6193513edf5953U,
  0x3daa354fbc92d477U, 0xbe5e9d533da13d58U, 0xbd9a8874bd750223U, 0xbb95b4003b9bc700U,
  0xbdbf273ebd39c662U, 0x3d783cdd3d0b334bU, 0xbd83f6aa3d1bc8ecU, 0xbe29273dbccc8c42U,
  0x3dc2711c3e076152U, 0xbe7b09babe182eb1U, 0x3db3510fbced1df0U, 0xbe58e29dbd5375ecU,
  0xbcc63595bd654412U, 0xbdb0810dbd9909d2U, 0x3df0c384be30fe4eU, 0xbe03d3e13e1e8c47U,
  0xbdbafcc4b97a0b55U, 0xbe0936f8bb16d6a0U, 0xbd492459bda80f99U, 0xbe6b58fdbe73a218U,
  0xbd5a1b5bbe64e9a7U, 0x3cb0d45abd4c6058U, 0xbceb24d3be050532U, 0xbde87850bdd191d7U,
  0xbd8d223dbdae08f1U, 0xbe2d0e4c3d38668aU, 0x3d4dafd9be9e209eU, 0x3b7aa61dbdf49c53U,
  0x3cad01ad3dbc8fd1U, 0x3c98582bbe074de4U, 0x3d1134febe0926eeU, 0xbe3a1a57bd91d1cfU,
  0xbeca54b6be4636a2U, 0xbe94c6c4be725e9aU, 0x3efbad3ebecc0989U, 0xbfcc3c07c033f893U,
  0x3e5bd0dc3f030427U, 0xbfc83f92be60025fU, 0xbf87f7e1bf679d34U, 0xbd51a4dec0355284U,
  0xbf33717abe6bba0dU, 0x3d4ca644be85ea7eU, 0xbccba352bdeab2eaU, 0xbfcbce41be854b52U,
  0xbf95d9d5be2939a8U, 0xbed7a6313d912ce9U, 0xbe5ee97ebf787918U, 0xbe37631cbdf0d969U,
  0xbe860369c00d6bfbU, 0xbf081939bf51a43eU, 0xc0032a893f15262fU, 0xbf7c441d3e4c9d2dU,
  0xbf3bf915beadca97U, 0xbf0b5ad93da55fd2U, 0xbed06c993ead8ab3U, 0x3f1be60e3e07f3f5U,
  0x3f3496173ea5589dU, 0xbfaff9fabfc43ab3U, 0xbe268423be3e4a24U, 0xbe80cbffbf8a580eU,
  0x3e900b48bf0ecd6eU, 0xc02a7e6fbf8e1197U, 0xbec2efd8befc7a50U, 0x3c817c7d3e98b52dU,
  0xbd6fc9f7bdf418deU, 0xbe0a932ebdf897f1U, 0x3c5c7118bc6f1974U, 0xbe174febbe19d15aU,
  0xbd435b71be034af4U, 0xbe1dc0c03cf2ac68U, 0xbe43a7b93bdc3799U, 0xbdc74028bde4936dU,
  0x3d7f56e5bd96044aU, 0xbe182f3e3d4b191aU, 0xbd8205be3d17bcf7U, 0x3d750495bde41aacU,
  0x3d689b3fbd82f45bU, 0xbc36a985bdb844a4U, 0x3dae87eabd0e6636U, 0xbce245443dd150bbU,
  0x3c8f0b13be161d50U, 0x3cf5affabd58109cU, 0xbddd88f6bcf915ffU, 0xbe3e5814bd2703d5U,
  0x3d2dd1e6bdaea1bdU, 0x3c84640fbc98e2a9U, 0x3d9a3ec8bdfc2d0eU, 0xbe1a4f03be34c7e0U,
  0xbe182271bda7cc36U, 0xbe0ff25ebd149fb2U, 0xbdb98816bdbea53bU, 0xbd7fd0b03c5e5475U,
  0x3d1df8cb3c428f4aU, 0xba84b05f3c57e6d7U, 0xbdb5d913bc0d78d7U, 0xbdd0b1e5bddc7f9eU,
  0xbf36e6ce3c858111U, 0x3eea53403e1f9b26U, 0xbfc1988ebf893a5cU, 0xbe851630bfd8b216U,
  0xbfb7fd653c325237U, 0xbfdef6703e3e80d6U, 0x3e2ea7d03f29289cU, 0x3bbb1e16bf7f7048U,
  0xbeed911ebebc0c54U, 0x3e70777bbec22ff1U, 0xbd76c1b2bfa6891cU, 0x3f1a7d6dbfa6e7fbU,
  0xbf890c793e5d43b2U, 0x3db588e83e8bc6ecU, 0xbf9ba9a9bf448e8dU, 0xbf2798e3c02533e8U,
  0x3f6dbdc4be6e1e87U, 0xbe2e64f3bf90493aU, 0xbeafeb183f676d2bU, 0x3ec654253dac64bfU,
  0xbf401b0bbec51facU, 0x3e43712dbf4e2b56U, 0xbf3c73c13e5f9ce6U, 0x3dc85df8c0142d91U,
  0xc05369a6be77a490U, 0xbfac0cd3bf2052eaU, 0xbe6f8ccfbe5170dcU, 0x3f6b0e74bf64aba0U,
  0xbfbd7685bf071927U, 0xbf53fb15bd97dde2U, 0xbec2260f3f2da1d0U, 0xbfb6aa7fbf1d2d00U,
  0x3e465b323c641a3bU, 0xbf16e9da3e38b016U, 0xbeec6f38bf50381eU, 0x3faea1dcbf958129U,
  0x3ec474c4be941b88U, 0x3eee42723e5381afU, 0x3e23e19fbf936ac2U, 0x3e8529203d912920U,
  0xbef672303eb45c8fU, 0xbfae5d18be079466U, 0x3cc2b38fbf9180e9U, 0xbf138792be2e3a34U,
  0xc00c7880be115b4eU, 0xbf972a9bbf407a05U, 0xbfc32433bea12a1dU, 0xbe915ea3bf3e1f08U,
  0x3dfe380b3eecd73aU, 0xbfa522ba3ea86cccU, 0xbf5a3a91bf32d42cU, 0xbed31bb63e40e627U,
  0x3eebd6b0bdfb468aU, 0x3c5f37a8be8155fbU, 0x3e59dd27bebf6a7dU, 0x3f0a5045bf86d4e5U,
  0x3ebad4f3bf61dfffU, 0xbf91d2f3bf03bfebU, 0xbf0303e53ecb53dcU, 0xbfc8ab8b3d6e13d3U,
  0xbf0301c2be3f470fU, 0xbf53f733bedafcadU, 0xbe9ec07bbf231899U, 0x3ef8234fbea52464U,
  0xbe8a6ae73c3db110U, 0xbebe0d28bca25a82U, 0x3d4dba4c3f8867eeU, 0x3e4582c8bfc9d48dU,
  0x3efc01353e80079cU, 0x3efd4c493d72c69cU, 0xbf1f5bbbbf5259b4U, 0x3d9c14a2bfb2ceb2U,
  0xbf7f8152bf3500f3U, 0xbe23fb4bbf01eec3U, 0x3c6682d03e97ee0bU, 0x3e10fc22be423498U,
  0xbf9b5912be29fed0U, 0xbcee8382bed3d2feU, 0xbec4cb763d831b67U, 0xbe963d9d3d045bf4U,
  0xbf1f622dbd43063fU, 0xbf6de010bf8448baU, 0xbb352e68c011a901U, 0xbf8a247abf99955eU,
  0xbf13df76bf20fb42U, 0x3f4bb90d3f7fa7fdU, 0x3f0cab5cbfe042a8U, 0xbf578445be443183U,
  0x3e1e595fbdbb99d0U, 0x3ece0b17bf50e5d5U, 0x3ed9a69f3ee53cfaU, 0xc015af0a3ee050c1U,
  0xbf55cb82bf00009dU, 0xbea5975dbf7cb403U, 0xbd934d75be21ec79U, 0xbeac2bc53f23e415U,
  0xbe9c15e1be6c6a28U, 0xbf82f00c3ea616e6U, 0xbd4a9961bf24b1beU, 0xbd3e958bbf4a4128U,
  0x3ce6e606bd8d29c9U, 0x3e8dd6b53d515280U, 0x3b444c24be73f56eU, 0xbbb739353e9c3c40U,
  0xbf2efcb2be081f65U, 0xbf8b4363bf93306dU, 0xbd4e130fbebbc09fU, 0x3d31d59cbe4cc19cU,
  0xbede21b3be03fd85U, 0xbe913e84bebcafbfU, 0x3eddd783bf88821bU, 0xbe3da7e8be86062eU,
  0xbe7dbc2ebf97f199U, 0xbf6a94eebef92636U, 0xbf3f4f1cbe7cc46eU, 0xbf0574ccbd780b6eU,
  0xbefb8267bd1b75eeU, 0xbe48be5abec54f02U, 0xbe4cf46bbe11f3b1U, 0xbda7614cbde4efb1U,
  0xb9f10207bf13d930U, 0x3eba03d3beae5cceU, 0x3d91a21b3dfb707aU, 0xbd7d60c8be804f02U,
  0xbe87ab5b3dfb6ca6U, 0x3de7e118bf085677U, 0xbd2e1a3fbddd784cU, 0xbee6222bbf5867dcU,
  0x3ed1488fbdb0fd1dU, 0x3fd17bc63d959804U, 0xc050ea5abf2cae0aU, 0x3d13df9b3bf2814eU,
  0xbfa9c772bfb4ac0eU, 0x3fd26c3abfbf2c8bU, 0xbe530547bf0b33fdU, 0xbdd16e77be9c8c3aU,
  0x3fb7ec063f480f8cU, 0x3d8a51cebebcb936U, 0x3b12d0e2bf731ca3U, 0xbf2a5e033f8dea73U,
  0x3d621c3cbf625414U, 0x3d594dc7bf120282U, 0xbf36a7ca3e1e4852U, 0xc0323deebca58f1eU,
  0xbffd456fc0055e1bU, 0x3e848b3e3ea19d1cU, 0x400689383ee892ebU, 0x3ebf33ea3dafd9edU,
  0xbf4cf86a3f2d9f16U, 0xc004291e3e30016eU, 0xbf9a8961bf7bfd66U, 0xbf7b4271bf8c0b76U,
  0xbefb60a8bfe9a595U, 0xbf0aa2edbf3ad9e4U, 0x3f83dbfcbf2f4e19U, 0x3fe6b28fbfde73c6U,
  0xbf8ee1bb3e2098faU, 0xbf111baf3f0447a4U, 0x3e54dd6a3ea7d030U, 0xc0055ed0c037464dU,
  0x3eb9a3003c8445adU, 0x3f2c8cb43cb0ca36U, 0xbe225d8d3e6eb6c7U, 0xbe29b4c8bffd2d30U,
  0x3f459e86bdfe2ec2U, 0x3fab9d22bd8c6479U, 0xbfa6402ebdf986e4U, 0x3e181778bf8d179fU,
  0x3e8ec9ab3e3807f6U, 0xbf2656e9bf31bffcU, 0x3dbd46f2be029898U, 0xbf40f849bf495e34U,
  0xbcfadf1cbeba1485U, 0x3f32d7713f013db3U, 0x3e1fb81b3f574061U, 0xbfb03abbbf7d9287U,
  0x3db8af24bf25aab6U, 0xbf83f6b93c9b06c1U, 0xbf6f8af23e95c67cU, 0xbf6a6b50becc2fc9U,
  0xbeeb01b2bfa3ccffU, 0x3f684f5c3f15a1b2U, 0x3e013be0bfe78628U, 0xc043d69ebea3c561U,
  0x3dc828303e8ce4c3U, 0x3dcbec853e54d144U, 0x3f0f4d07bf7741a9U, 0xc01b31cfbe67e834U,
  0x3ddb1550bed3422aU, 0x3f729b323f8613c0U, 0xbf4610fb3f2a16d7U, 0xbd9d99a6bddf8760U,
  0xbf1e05ec3cd693e3U, 0xbfccf95a3d851b15U, 0xbedd0fbabe339869U, 0x3f153248bf27a37fU,
  0xbf669aeebfd4bf88U, 0x3f9af4e93f208c4bU, 0xbfa5fff1c02d44a9U, 0x3e6cfae5bebc9c74U,
  0x3f33113b3f1fa394U, 0xbeb4885bbf23948dU, 0x3dc81a1c3f111548U, 0xbf22b4a2bf1b3c63U,
  0x3e2997ecbe6568d9U, 0xbf84844bbf320a78U, 0x3eb4aec13f8eb45dU, 0xbeeda6e2c004521aU,
  0x3f0e0d903f2df7beU, 0xbe629507bf8a2a83U, 0x3ef99bb13e69a0a1U, 0x3ee11e7b3cee7469U,
  0xbe2164873f56b9c0U, 0x3f2e1a473dcb3f66U, 0x406f645a3f2307e7U, 0x3e1d5b84be3778baU,
  0x3fa03fc4be9c0bf0U, 0x3f0fc0dfbcf72742U, 0xbe53ba8f3f0e5bffU, 0xbdfc191f3f92f4d9U,
  0xbf82d6363ea92ce0U, 0xbef34719bfd5051eU, 0x3f0bfb903ea8dbdbU, 0x3f29629d3f77a211U,
  0xbf8080993e4d1b73U, 0xbe6635d5bdff3d12U, 0xbe1fb1a7beba1c29U, 0xbfaa166dbf87aee6U,
  0x3f6c11e5bf6aa4b4U, 0x3fd05fac3fa07a31U, 0x3d725a9dbf60b4ddU, 0x3ee8cc90c027687cU,
  0x3edf667ebf63f0f5U, 0x3e18a233bf9b9e42U, 0x3e0d1a4a3fc17f9cU, 0x3ef43ed53e2f8f33U,
  0xbeea90c7bdd71119U, 0xbf0ce01c3fca5bebU, 0xbeb0d0e8bef61ef1U, 0xbff8a7463f62352dU,
  0xbee7822fbbeefb59U, 0xbebe3a49bf29f4adU, 0x3e12b45fbfa2e567U, 0x3dd9fddcbf2d3225U,
  0xbeba44dcbf0490d1U, 0x3f0d0eac3ee62690U, 0x3fe4003cc00dbf6eU, 0xc00716e13ef63278U,
  0x3f22db45bf2a23bfU, 0x3f1aaad8bf398c82U, 0x3ecbda9f3e4fb5e9U, 0xbd9227b43ee75eb0U,
  0x3d9890623ebfa593U, 0xbd415caac035a39cU, 0xbeb96bf9bdbcbd17U, 0x3f2cc1713ef54a90U,
  0xbe34e1913e9f06abU, 0xbf042daabda4c4afU, 0xbe813a85bfac8da2U, 0x3ea5a0f03b13f5ecU,
  0xbe613b39bed8c6ceU, 0x3f65dc8c3faa1d35U, 0x3e81b654bfd4d097U, 0x3e8829fabf1fbb03U,
  0xbcc4cce4bf7ea4ceU, 0x3dba30e7be95b599U, 0x3e47469ebf1fb9b3U, 0xbe82ffffbf9d05bbU,
  0xbfa01b25be8fd7deU, 0x3e864d85bfa978fbU, 0xbfe3f6573e4c4a7fU, 0xbf395209bfa2a6acU,
  0x3e182e323ee6c074U, 0xbf59efa5be233e01U, 0xbedee3283f8b01d8U, 0xbd3c7876bfc15c1bU,
  0xbf4e23633f00f738U, 0x3e2d4443beb4d4b8U, 0xbe9b278c3f19ab0aU, 0xb97f4f82be95a6f4U,
  0xbdf75c3bbf4c0675U, 0xbdaf0860bf2dc3e4U, 0x3ecd6c773f14fc1dU, 0xbe57109d3e4b0706U,
  0x3f6ac101bf92d884U, 0x3fe4ee593ed7f384U, 0xbf93ad55bea5d425U, 0x3dba97763f0c605cU,
  0xbeeea6fcbda710d5U, 0xbf0dd04d3d5e5aefU, 0xbe59f48fbf0f2b84U, 0x3eb243e8bf0464d7U,
  0x3e7de5f33eab9c6fU, 0x3f8ae426bf05945fU, 0xbe8422dbbd0b57ceU, 0x3d648f2fbebbef77U,
  0xbf97db073ed0357cU, 0xbf608e5abe62878bU, 0xbe8a0491bd7b8545U, 0x3ebbd1323f8dfe3eU,
  0xbdba4f43be92da09U, 0xbfcfe326bf83919eU, 0xbe9ebdbfbedb16f3U, 0xbebde7fdbe41fdf4U,
  0xbf91371cbf3663f9U, 0xbecb8d4dbee46bc3U, 0xbf7e9358bf21abfdU, 0xbf7b7fe1be3db34aU,
  0xbfa8e350bf587068U, 0x3f169c443e892cc7U, 0xbda5a261be82f9caU, 0xbeff6e27bf1224c5U,
  0xbecff097bd822a42U, 0x3f28b5fabf8f637aU, 0xbf11635b3f17a5f6U, 0xbf40b3343e9542f5U,
  0xbf1a0e7a3f0723f8U, 0x3f131dfc3f8bd1b3U, 0xbf602835be04c5ffU, 0xbee9b6cd3e8d1368U,
  0xbeb82968bca7c4a7U, 0xbfab0c953debdc7bU, 0xbe4c22cdbcf692c1U, 0x3f02973ebf855139U,
  0xbf11cdd4bf937f5bU, 0xbe63870abf300e7dU, 0xc0071acfbda979fdU, 0x3d411ac6bf608a7cU,
  0x3de69b5a3ef2f0a9U, 0xbfa0d6c1bd839ba3U, 0x3da930afbe34751bU, 0x3f0583cc3f5061edU,
  0xbf2388e9bdb719cfU, 0xbedd0bbd3f0ecaafU, 0xbfd36de83d114d9eU, 0xbfb859913c03d863U,
  0x3df9d329bf2c4895U, 0xbfce41cf3ec51578U, 0xbf567fa2bf22feeeU, 0xbe21e2a9bf4ab288U,
  0xbe8a5cc6bf01ad0eU, 0x3e91d7273e5ebef8U, 0xbe977b6ebe78d8b2U, 0xbed70e32be7d531fU,
  0x3e4f1e79beabdf81U, 0x3e996e08bf24b085U, 0xbfbe267c3e17bf80U, 0x3d535d9ebe5ab4cdU,
  0x3c385aa3bfb83090U, 0xbf41b7babe8f8a22U, 0xbf217ab1bf0db2cfU, 0xbe456f1abc258450U,
  0xbf5d0aa83c585933U, 0xbf971f6a3e9fa9afU, 0xbe88b3cd3e60c151U, 0xbf51faad3f5cac6dU,
  0x3f331d01c03b21a7U, 0x3fcc6c0ebe5c9618U, 0xbe75ca30be9166a7U, 0x3df818633eabb2a7U,
  0x3ecd59dcbe983fe3U, 0xbe8977e0bf1ff5fcU, 0x3db4f48ebe8c4fcfU, 0x3ec66f0a3d9b099bU,
  0x3f371c17bf9ed593U, 0xbe8cff383fc6bee3U, 0x3eacbaf4be8288a6U, 0xbf43c8c2bf599466U,
  0x3ff4756f3fafc3baU, 0xbcf9334fbeed09bcU, 0x4004503bbfce4067U, 0x3d67dc413dc3a3a4U,
  0xbfeb9407bfa6088fU, 0x3f61578e3f5517eeU, 0x3eea2b3dbebcc2dfU, 0xbec2b6ffbd412b42U,
  0xbf8ebe7fbe8d4eccU, 0x3fc86c003d8804b8U, 0x3fb2bd46bf4aa44cU, 0x3e5148353f1f7cbaU,
  0x3d39c31c3ee2ceebU, 0xbf4f68abbfa92f07U, 0xc036429d3f339fa2U, 0xbf89a8e33f2f0007U,
  0x3bc64c72beabb13eU, 0x3f885da93d1f42ccU, 0xbfacda3dbf26d926U, 0xbe2548f83eda5c44U,
  0x3d3d5bbbbe8f9957U, 0xc0276142bf085599U, 0xbea5326fbeb946f9U, 0x3b1967523f24037dU,
  0x3f81c95bbd27e50aU, 0xbf77457e3e4b4777U, 0xbe59d6e53effbc93U, 0xbf18ae724013e6bcU,
  0xbdd18ef0be2574c2U, 0xbf2a540bbf1873ddU, 0xbe51f3a3bf0c1dc9U, 0xbf3a6a91bf2df71bU,
  0xc020be1fbfcdb38dU, 0x3ec94742bf95b7cbU, 0x3f849766c01cd28dU, 0xbf889f433ea139e8U,
  0x3e887f9cbec77f1dU, 0xbe93aa63bf2762d6U, 0xbf8af240bf20dec3U, 0xbfa2e44dc01e7961U,
  0xbf550aaabee88518U, 0xbf03dea03fadc00fU, 0xbf3ddf87bfcaa019U, 0xbfc3fd0cbf2b9af1U,
  0xbec44e5c3ef92e15U, 0x3fd82d253d295c9fU, 0xbfb0ab32bea7fb90U, 0xbfdd85043ea6cf9fU,
  0xbf65f9ce3d3c3b58U, 0xc08b7a8a3d9adb1dU, 0x3a942e2dbee31a14U, 0x3f6397b73ea38c56U,
  0xbf283b2f3fb9dfb0U, 0xbe00b3f2c011b838U, 0xbf7dd53dbf075c34U, 0xbe7aa200bebd05a3U,
  0x3ee271db3e8736afU, 0x3ea2604dc04dc205U, 0xbb9fcd7cbe8ac289U, 0xbfc3cc61bfa0a11cU,
  0xbddbf1f3bf804bf9U, 0x3ce5e727bf7acb5bU, 0x3f58a074bf0be98bU, 0xbf90747d3ee016aaU,
  0x3ef999193dfd7603U, 0x3f2118673f51c707U, 0x401f98f73f2dff6dU, 0xbc2e0be5be3bfb3bU,
  0xbea7f875be50686eU, 0xbf6ce0ddbfb167b0U, 0xbf0c6ed6bf1a4514U, 0xbf8daa6dbf592505U,
  0xbf3051b1be88ee92U, 0x3eff63d63fa2e280U, 0xbf4785bdbfcb3a2bU, 0x3f1066e1bf003437U,
  0x3ed63cfdbf0f00e1U, 0xc104d2723e9744d9U, 0xbe1489fc3f90fc79U, 0xbe4f251dc0893dbeU,
  0x3eae03283dfcfac3U, 0x3ea4833abdc181dcU, 0x3e89f668be9da104U, 0xbf3b71dbbf1a4408U,
  0x3bb33938bfd11780U, 0xbda58185be833508U, 0xbfba97efbf42b3c7U, 0xbd5acb27bea37892U,
  0x3be8adcdbf9142fdU, 0xbf2693e23e0605b4U, 0x3e0b6fb53f0b8e1aU, 0x3f6b15013d13ba61U,
  0xbfedf3d5be270b1fU, 0xbf9141ffbdac77afU, 0xbdcd74a3bf3e5f0bU, 0x3f8575263ea9f997U,
  0x3f28be76bde6c6deU, 0xbf75ecccbf0513f8U, 0xbd105465bf9cc10eU, 0xbf8972d6be0100e6U,
  0xbf98e1c8bfc3d3faU, 0x3fa224133fc60ebdU, 0x3f7fc627bfcb83c7U, 0xbf19141bbe815f21U,
  0x3f618c54bfa95710U, 0xbf5739753f954ee5U, 0x3d9256b3bebbcae0U, 0xbedcc5bf3f86594fU,
  0xc001afa8bf133781U, 0xbf5dc8d0be94400dU, 0xbf92a0913ea3782aU, 0x3ed21140bf0cec2dU,
  0x3e573d3b3d0f882fU, 0xc18513f7be1ac42bU, 0xbecf7df0bf132481U, 0x3fa7873bbf3518d3U,
  0xbf30f0de3fb8e935U, 0xbf13c696beca54ecU, 0x3f80d5903fb103ccU, 0x3e1f230ebf24754aU,
  0x3f192d653ec14ba4U, 0x3eab6c103f5ae640U, 0xbd092ea73e8fac81U, 0xc05aa0edc0ee029dU,
  0xbe8689113ffbaf71U, 0x3da61edac00d583bU, 0xbf08ae104059601fU, 0x3e658296c0a575e1U,
  0x4026718ec0262857U, 0x3d5e751dc10f41d1U, 0xc069872d3ea7f06dU, 0x3f04ce0a3fd9fb1fU,
  0xbe2413293fd0219eU, 0xbf9df356be9d0e4fU, 0x3f4971cc3e3497faU, 0x3f6a87b9bf006487U,
  0x3f14bb16c0920d34U, 0x406563b93f8d6cb8U, 0x3f66f6123e322422U, 0x3e9af4e73f401043U,
  0x3ec811febf16e6b2U, 0xc11042943f72d71fU, 0xbf2d43634044e831U, 0x3f4ff689c1711921U,
  0xbf43d9e3be20b4d3U, 0xbf3baec23df4dee5U, 0x3cd32301bf805c21U, 0xbf421985bf657c0dU,
  0xbe023309bcb7ccbfU, 0x3dcdfe0d3ec13a9cU, 0xbda5d3f83e9a8171U, 0xbe360aecc015ffb7U,
  0xbe8a4a7c3f0c5c64U, 0x3c8191fcbec52cbcU, 0xbdc056533e46fe7eU, 0xbe9028cfbef1de4aU,
  0xbfa70f45be802414U, 0xbf63842d3d93ce5aU, 0xbf25d191be55fcf5U, 0xbffe48b2bf03d342U,
  0xbfb4327abf11d042U, 0xbf01f10ebe1c3ddcU, 0xc0069e94bf1d9f61U, 0xbfcf0e3c3e1bebe4U,
  0xbfbd2bfbbf1c66adU, 0x3f54171f3f0e38bfU, 0x3f18406abee0ea82U, 0xbf7db53ebf4418bbU,
  0x3efadd3ebee5b7efU, 0x3fb88127bf1a3536U, 0x3fafc8b23d5fcd50U, 0xbe473bb93f2723b7U,
  0x3eb70fedbf23044cU, 0xbd93f96dbeb64fe7U, 0xbeb7e6853ee6750cU, 0x3e13414ebeb37ac1U,
  0x3fe376c43e4211ceU, 0xbe9bbaf8bd4bd7a6U, 0x3eff45143c438873U, 0x3e30ee0bbe826738U,
  0xbf1bed14bf0e1f17U, 0x3f7b33d1bd414146U, 0xbef3968bbf9e52c8U, 0x3e2fd2493d575068U,
  0x3f047bc4be89e5bcU, 0xbe019613bfee2923U, 0x3c30593ec0012c7eU, 0xbeca1bcabf1b5dd1U,
  0xbf63b0febe753e47U, 0x3e8d8db63da7d74dU, 0xbf7b38a63d990d5bU, 0xbf9cc26cbfb26335U,
  0x3cf73af3bfb09f98U, 0xbeaa5bdbbedaad7cU, 0xc012db68bfd38c40U, 0x3e2d8f923f87a57dU,
  0xbfe6b4b3be9bc6cfU, 0x3d2745b7c0272b3dU, 0xbf7ea5bc3e937d7eU, 0xbfdcce1bbe422534U,
  0xbece39513ce22f8aU, 0x3ed93e893f74f255U, 0x3f9fb95c3e0a8cbaU, 0xc00f8062bdc98260U,
  0x3ec1d7c23e7ecc77U, 0x3dd10c633f972708U, 0x3db98aa63f06cfd3U, 0xc036f7cf3e205781U,
  0xbf1631143d8af2fdU, 0xbf9e0468bbecd7f3U, 0xbecd99bc3eb8a212U, 0x3ec42108bedfb8c3U,
  0x3e82634dbe385737U, 0xbebd45cbbe79917cU, 0xbf8b12523e927c62U, 0xbcb9c256bf1cf556U,
  0xbf4da27fbf963a82U, 0x3e86022bbf7d5dfcU, 0xbdbb3e8abeaad84dU, 0x3ea7f3e5bfd5f1a6U,
  0xbe2a2f4f3e05a040U, 0xbf1476d3bf9b8911U, 0xbd99653fbee5d74dU, 0x3eb5d7c43e0309ecU,
  0xbfaab5c2bf22e520U, 0xbf522bb1bffedb1bU, 0xbe6898bd3e113839U, 0xbf6231e03d9870afU,
  0xbf355d2cbf22274aU, 0xbf1006d33e4bfd0fU, 0x3e817b633e074282U, 0xbe8f8e3c3f0e397bU,
  0x3eb1a513be7d69f6U, 0xbed2e1da3f00e5d8U, 0xbef0682dbebaa9b5U, 0x3e95bf813f0cc934U,
  0xbf3270f23f02a708U, 0xbe71e66a3c3806b4U, 0x3d33b4dabea2004fU, 0xbe114e3bbf48afacU,
  0xbd220407bb564149U, 0xbe33cc70bda24c0fU, 0x3bfaad25be073633U, 0xbd9dc94d3d4fa96fU,
  0x3d5c389cbcd69a95U, 0xbd8966b2bd52cbb2U, 0xbdbe611cbe09a1ffU, 0xbb1551ccbd84f8edU,
  0xbddf1ce23ba637c2U, 0xbe1cd95b3d70ffe6U, 0x3d59f2c33cf01d89U, 0xbcd30470bcc65a87U,
  0xbd1f8cd63ca95a89U, 0xbc723453bd4363e2U, 0x3d439640bcd6601fU, 0xbda21d553dec89d8U,
  0xbe183185bc855938U, 0xbd220c28bdf71a3cU, 0x3db20ba8bda54be8U, 0xbe142093bd9e5796U,
  0xbdf83a823d325e57U, 0xbd63b953be289fe2U, 0xbd8e972a3d689267U, 0x3c498a51bd632c38U,
  0x3d0f0ab9be0c445cU, 0x3dea342ebc3ec09aU, 0xbcde2789be00e23cU, 0xbdee4bb23d888a73U,
  0xbcc210f4bdb6ec1fU, 0x3d8ae01abe0252e4U, 0xbdfe779dbdaf40c5U, 0x3d038dfa3d040e4dU,
  0x3de6405ebe6033fbU, 0xbfabe7a83ea0b60fU, 0x3db52fb9bf2003cdU, 0xbee1aeddbf146066U,
  0xbe4babc3bf39e5acU, 0xbd9abf92bdf53ca2U, 0xbf927ebcc00afb6fU, 0xbe1219073e84a720U,
  0x3e351b31c033c8e0U, 0xbf30dd96bf88dbe0U, 0xbdcd48693fc5f132U, 0xbfb5140d3f8e59b4U,
  0xbf907c613e51f7fbU, 0xbef9184cbfede8a0U, 0x3d9d8339bf6d3742U, 0x3fbc2f0e3e3c065aU,
  0x3f5ea9fdbe16c154U, 0x3f0a5ad7be9eee53U, 0x3e336f0d3f6c2cf6U, 0xbf72a13a3e1ba722U,
  0xbeed3e57be8db736U, 0x3eaf66e3bb911283U, 0xbf9cce3a3e7e147bU, 0x3f46f4e13ef6ef54U,
  0x3e5427423f29a1b1U, 0x3ecfe1263d8e3b13U, 0xbf317fa5bf2ea265U, 0xbeabce83be718992U,
  0xbf5230a63f01cdaaU, 0x3e6a9541bf67849bU, 0x3e8cdd4b3eaf2194U, 0x3ee70c64bdea6e89U,
  0xc00722233d5606bcU, 0x3e2694283d4373c3U, 0xbf4ee69abe4a9593U, 0x3f88d630bf8181f0U,
  0xbf2584f63d9028ceU, 0xbfbbdfe5bd61b5a1U, 0xbf20a5f0bdbae0f0U, 0xbdf7df37c009aeceU,
  0xbe6f546dbe720f71U, 0xbf2555363e46b3e2U, 0x3e03f8b3c029fea4U, 0xbf8a26aabd1a26c1U,
  0xc03b0d2bbf2b5be2U, 0xbfce838d3e011964U, 0xbe3a032dbeca93f3U, 0xbf84dc51bead1c25U,
  0x3e3541bfbf2fabb9U, 0xbc5d6006be366e4bU, 0x3ec31b13bde30fb7U, 0xbedb04cbbf1d35c6U,
  0xbe4d88fe3d1d5bdaU, 0xbf1da8bcbf983130U, 0xbf077dfe3f97862fU, 0xbe5a2ebabf2803c4U,
  0xbeaf661dbd1287beU, 0xbdd37c18bfa6149bU, 0xbefa5b8cbe88bf33U, 0x3ee26c7cbfa06498U,
  0x3e49d6103f3f5c80U, 0xbfe4abe8bf8f1c99U, 0xbf8403553e7365e2U, 0xbfc73cfe3efce817U,
  0xbeaa3d403e0f2893U, 0x401b2725be1c06ddU, 0x3e91156c3e5ab7f1U, 0x3f888c33bef10943U,
  0x3e6b2f464057c692U, 0xbf651ecbc05fcf67U, 0x3f828d063ef988abU, 0xbf0474673f5fcf34U,
  0xbf24291cbbc25b9cU, 0x3f1cd8febe6f1307U, 0x3e8b1afebf98dc11U, 0xbfee824740848ca6U,
  0xbf0e6710bf7a1495U, 0xbb96cee4c013e568U, 0xbeede653c03a6dd5U, 0xbfa05cc3bf8c90c8U,
  0x3fb50d90c084f05bU, 0x3faf6c303d87e0ffU, 0xbfa0e6c8bfb28eacU, 0x3f1607d8bd2ddcaeU,
  0xbe2b3a333f69294eU, 0x3f1a231abf364721U, 0xbebe657bbf2d5cd6U, 0x3f488c63bf18dcc2U,
  0xbf6c771bbea73cc9U, 0xbf560856409bca88U, 0x3f77dc8c3ecb07f6U, 0x4049935f3e55683aU,
  0x3f049a2e407d1aa1U, 0xc137c164bffb52a3U, 0x3f1cae53c0a27091U, 0x3e8fc491c17f4447U,
  0xbf4167f6beae1b98U, 0xbfa3dea73cd9a5bcU, 0x3e14febebd897ba6U, 0x3f59a5b6c0171619U,
  0xbe10063dbfbb4872U, 0x3f9e52febfb4355aU, 0x3f92c3e3bfad96faU, 0xbe3e997bbf286036U,
  0x3f0617ad3f059a55U, 0x3f3e5a0bbe579cb0U, 0x3cf367e73e113f40U, 0x3f16ae60bf8e8025U,
  0xc00c271e3f4d65efU, 0x3f8a062fbf2e1922U, 0x3e1fcd9bbef775bbU, 0x3ed5ce54be941471U,
  0xbf1f3b583f20855aU, 0xbf635fcfbf16c320U, 0xbdfb05e43dadd7f1U, 0xbe0979e8bf77e294U,
  0xbf3b29dabf417403U, 0x3f8603293edbb4d6U, 0x3fe5e3ed3ea0560aU, 0x3e17ad463e83697cU,
  0x3f217fff3ed22c7aU, 0x3fc4bc5bbfc948e2U, 0x3f8ce639bea29ad0U, 0xbf209aa23ff7cf8dU,
  0xbeeb75eabfb26ce6U, 0x3f8ac730c0510af6U, 0xbd740d083f37901bU, 0x3fa4a744bf8bd004U,
  0xbfe4edd7be168c85U, 0x3f4d3980be35a029U, 0xbfa860e03f05cf69U, 0xbf8a40c6be8cd4ccU,
  0xbdd9dd61bd86d5f4U, 0xbf479881bec343f9U, 0xbeda06de3f0ead41U, 0xbe2a3c793ede35c8U,
  0xbefd9d493f6c2260U, 0xbf4a1c05bfc60cd9U, 0xbdbe3cecc0136384U, 0xbea39039bf1a260cU,
  0xbe79433ebf216931U, 0xbf2e17dc3ed433a0U, 0xbe00be0dbf9d0c98U, 0x3f2b8a553f110beaU,
  0xbf36b69abfaaacf8U, 0xbe9e4826bfd87fc9U, 0xbfab71febf837247U, 0xbf76c032bfd7b647U,
  0x3e5219153e253c03U, 0xbf4800a5bffc9e3dU, 0xc001d5f1bf06538bU, 0xbed01849bee00294U,
  0xc000d4e2bf064c31U, 0x3e82d3e2c066d66eU, 0xbfaf2dffbe970d8dU, 0x3f07e7d9c00dcb56U,
  0xbea35c21befa9557U, 0xbf0ff4803fc4932aU, 0x3f171b38bf86ab8bU, 0xc0207b57bf77f6e0U,
  0x3ecc3242bf072015U, 0xbe29f6473e4686fcU, 0x3d9517cebe249915U, 0xbe0f0a35be1f707aU,
  0xbd7396d53f26e110U, 0x3f658b7bbe8c5b62U, 0x3d9a35b9bdd7214eU, 0xbf7c4323bf06ac2cU,
  0xbd12afe73e5c3a05U, 0xbe88165fbf4b1294U, 0x3f2002e2bf07ed5aU, 0xbf8c18df3f788487U,
  0xbf20893b3ba58c9eU, 0x3ef7d2323f4d24a7U, 0xbd98791b3e0162e6U, 0xbee019e4bf2b3db8U,
  0x3eb32c80be86befdU, 0xbd369e00be225a88U, 0xbe60d5b7bd80158bU, 0x3f09693bbe367982U,
  0xbf72f61dbf537f96U, 0xbea8a7a7bf0c2da4U, 0xbdc10834beeff410U, 0xbe238b1cbfadca65U,
  0xbef40f96bf4c27cbU, 0xbecf021cbf4c3e89U, 0xbeaaf8d5bf187990U, 0x3c3232da3e503055U,
  0xbee5d6f8be9efac0U, 0x3e7ab660be42354eU, 0x3f81b7323e1101abU, 0xbee95e253ed6e4ccU,
  0xbe010b5dbf1391daU, 0x3d821ae8c0226ac8U, 0xbea52aa23feba712U, 0x3f0f9b78bfa2a6bdU,
  0xbf9ab70dbfd9a46dU, 0xbe3bb42cc0ea17a9U, 0x40b762934080b399U, 0x40790c71bf339cffU,
  0xc0b82dc6bf6b41dfU, 0xbfaba521c028f158U, 0x3e505810c022b5b8U, 0xbc5bbdd1c128ec5fU,
  0xbd5787c4bf3b0f44U, 0xc05ae1713f00a940U, 0x3f9c458d3f0a895dU, 0x3f6570113f240120U,
  0xc08053f1404728efU, 0xc04b48f33d9baec5U, 0x3fc49458bd155e3cU, 0x3d2629793da43a2cU,
  0xbf58a641c05bd323U, 0x3fc07fb3bc87f907U, 0xc0256927bf97ad7dU, 0xbff14179c0c4bbd3U,
  0x3f992ecb3f060480U, 0xbff50a01c0e0dc0dU, 0xc0022d533eaead11U, 0x3e9f5801bf82c0c4U,
  0xbfcfb82bbfd19493U, 0xbc77cf7a3daa5069U, 0x3e0b0a323fd54c13U, 0xbe9f34babf0f7977U,
  0x3fdb7de740dc0a05U, 0x3d6584f240596f07U, 0x3f9f938bbe1084aeU, 0xbf5da3df3fbe6ea5U,
  0x407f6ed9bfff71f2U, 0x4128a12fbf66ad18U, 0x4116f916bfd1ebc8U, 0x40dda6e940524ca6U,
  0x3f0007c03e022d86U, 0xbdc8b3fd3decc636U, 0xc025f15b3e90e9e0U, 0x3da58e723f06d1d0U,
  0x3eb3a162bf1bbef3U, 0x3f28fed4bf270d4dU, 0xbfe9df21bf05b5a8U, 0x40e6aa53bea6795cU,
  0xbe3c6a44c0160c98U, 0xbf0fe735bd717c9eU, 0xbf8c509f3cf55af9U, 0x3faef9993bc98c29U,
  0x3fd367774021da39U, 0x3fe2e0623ea8f0cdU, 0x3e305ceec023ca3dU, 0xbee01a05bf91fdafU,
  0xbf96f3d23f4c7a26U, 0x401c13d7bf06a8cbU, 0x3f2400ae3e8047c3U, 0x3efe1593be78eea2U,
  0x3e84c746c0ed19a0U, 0xbf14aeb83c7c1a55U, 0x3fd27748bfae5d24U, 0xbf659e253edc6172U,
  0xbe882e6abe0bb891U, 0xbd35500e4096c21eU, 0x3fb91083401dcdd7U, 0xbff6f43fbf7bf1a2U,
  0xbf5bdf81c02a2020U, 0x40df7cd53eb4ec23U, 0x3fe292cdbe8d1f06U, 0x40793fe7bff14277U,
  0xc0f3946bc047f095U, 0x3fe09dedbfe2b9f3U, 0xc05bdf403eb9627bU, 0x3f9155cbc104663fU,
  0x3f3e7c203f53d56aU, 0xc05919af3f977044U, 0x3fba3a6d3facdfa4U, 0x40fb6522bf15a49bU,
  0x3edb876c40dfee4eU, 0xbffef521bcdf220bU, 0xc0799c7a3d4286e5U, 0x3f3f2ca3be10a184U,
  0x40113da2bf118f0eU, 0x3dfec3c13f3870e4U, 0xc000ecf0401448c5U, 0x3f5470803f577f46U,
  0x3e36525b3f9a7685U, 0x408717bc4008c6e1U, 0xbfe330d6bf2644a4U, 0x3f79ba73be3a62c6U,
  0xbfeee3da3ea6724aU, 0xbfbde4f3bccf2e09U, 0xbda102b7bfc988f3U, 0xbf8dd5453fba5318U,
  0xbf86cce23ec6adc9U, 0xbff35b12U,
};


ai_handle g_network_weights_table[1 + 2] = {
  AI_HANDLE_PTR(AI_MAGIC_MARKER),
  AI_HANDLE_PTR(s_network_weights_array_u64),
  AI_HANDLE_PTR(AI_MAGIC_MARKER),
};

