/**
  ******************************************************************************
  * @file    network_data_params.c
  * @author  AST Embedded Analytics Research Platform
  * @date    2026-05-15T11:19:11+0100
  * @brief   AI Tool Automatic Code Generator for Embedded NN computing
  ******************************************************************************
  * Copyright (c) 2026 STMicroelectronics.
  * All rights reserved.
  *
  * This software is licensed under terms that can be found in the LICENSE file
  * in the root directory of this software component.
  * If no LICENSE file comes with this software, it is provided AS-IS.
  ******************************************************************************
  */

#include "network_data_params.h"


/**  Activations Section  ****************************************************/
ai_handle g_network_activations_table[1 + 2] = {
  AI_HANDLE_PTR(AI_MAGIC_MARKER),
  AI_HANDLE_PTR(NULL),
  AI_HANDLE_PTR(AI_MAGIC_MARKER),
};




/**  Weights Section  ********************************************************/
AI_ALIGNED(32)
const ai_u64 s_network_weights_array_u64[2626] = {
  0xbfe459ce3fa45b9cU, 0xbf2015e43fcf1fe5U, 0x3fa1b96bbf3cececU, 0xbf2b4aa7bfd7da4aU,
  0xbfd85742bf22bc48U, 0xbf366b84bed9a141U, 0xc00b7d6abfc71d28U, 0xbf0a70243e03f771U,
  0x3f979443be17b411U, 0xc01629c83ef79958U, 0x3dffc6a03ee8f9fdU, 0x3e5f11cbc00944d2U,
  0xbfb24e543dd0f983U, 0xc0124687bec50e9aU, 0xbe4052ec3d16b433U, 0x3fb720e83f3d2863U,
  0xbf68107cbfa2136bU, 0xbfb5b285bf05d506U, 0xbf3b9bfcbf276ce0U, 0x3f3a5938bf591110U,
  0xbf07ff6abf6e65a0U, 0xbe99390d3f638ab1U, 0xbff583fc3ef7247fU, 0xc0064976c0272c9dU,
  0xc02bb30bbfd597f2U, 0x3f20ee76c00eb44fU, 0x3fd73c82bfc3eb98U, 0x3f87a405c012ef03U,
  0xbf59a4a84028e900U, 0x3f6aebeb3f0ca52cU, 0x3f315ad0be33b45dU, 0xbe47b2ad3f847dd2U,
  0x3f36c83d3f775831U, 0xbef6399a3ea74c84U, 0x3eeb72363f50dbd4U, 0xbfbe9e8dbf8d9a38U,
  0x3f72465fbe97027cU, 0x3d1fd2d0bfe64599U, 0x3e75a2703f6a4311U, 0xbee50364be255eadU,
  0x3f41c4333f6fa288U, 0xbf3ebc61bebf4f81U, 0x3e70766dbfb6a19bU, 0xbfaa841dbdf4febcU,
  0x3d6f680f3f1f3dadU, 0x3f53f8a0c04a7744U, 0x3f7d48ac3f3cb062U, 0xbfb0435cbf843a6dU,
  0xbea852493e0fb7f2U, 0xbde2f2743f78f6b4U, 0x3f37c984befe1c54U, 0x3f3fb9d7bddedfaaU,
  0x3f75c0eb3f0f0383U, 0xbef023693ecdda73U, 0xbef9a42d3d5aa655U, 0x3f31aef4be20caebU,
  0xbe2a4e1dbdfa963eU, 0x3e1209a03f94f1f4U, 0x3f8c8553c03e70abU, 0x3fd79e3a4008bbf1U,
  0xbe8e8f643f7257ddU, 0xbeb4146fc005c8d7U, 0xbf8d9929c09a29c0U, 0xc0921a3ebdcfa43cU,
  0xbf565029bf90819bU, 0x3ec2dc213eb41e13U, 0x3efa105dbfd9e55aU, 0xbf3468673fdae474U,
  0xbfb93a573e46a17eU, 0xbd33e8133f50eae4U, 0x3f5df344bff1698aU, 0x3fcd2f6abe5952e4U,
  0xbdc24c5cbfbdc404U, 0xbefb98723fbb85d4U, 0x3f67ff0cbf2c394aU, 0x3ecd0964bea36971U,
  0x3e2003133efb7c9aU, 0x3f8914f33e04800aU, 0xc013b30abfac8185U, 0xbe4406f63fc25384U,
  0x3f126a99bfd81cc8U, 0xbfe9ec1d3e2d3b29U, 0x3f1860abbe31c868U, 0xbebd8e51bfdc5a29U,
  0x3f5e0b693f678da2U, 0x3f417c76bf6652dcU, 0xbeed78af3e223681U, 0x3e3fa5ce3d8590a7U,
  0x3e928223bdfe6040U, 0xbd8a11783ed7be38U, 0xbfbe58d73eb4d5d8U, 0x3f1b8dbcbe2ee9b0U,
  0xbcfd4a1fbe187ca2U, 0xbf944829be097ff5U, 0xbdf804b9bfcc03bfU, 0xbfdb61733eb4edcbU,
  0x3eec7b31bdaa8628U, 0xbeb2a290bec42fc2U, 0xbf830305bf2ca347U, 0x3fb98a28bfda03c1U,
  0xbf53663e3fbcb788U, 0xbfa81d023faeac0eU, 0x3fce969abf3cf760U, 0xbee7c9f7bfc950b0U,
  0x3bd07b7ebecb768bU, 0x3eaaa5913f32a68eU, 0x3da5352abf0fda31U, 0xbc4bff42bd3e6cb9U,
  0xbf106d933d6dd711U, 0x3eacb6943da9cc48U, 0x3911c074bfd616d2U, 0x3eb211c43f7b0039U,
  0xbf431baf3e8213f2U, 0x3f2199cabfc96729U, 0xbb6927083f2da4a1U, 0x3f1f44393f58f138U,
  0xc02a2949beab4e4eU, 0xbf904fcc3fd98e94U, 0xbf16f2d9bdecfec3U, 0x3f87136c3ea2331aU,
  0xb9195c98bf321c37U, 0xbf38d2893e83f002U, 0xbdc9e3a2bed1b816U, 0x4000332ebf8d8243U,
  0xbf1bbdbb3e0d4a8aU, 0x3d244dc1bf89a005U, 0xbecba01f3f1d42c5U, 0xbf7cf042bfa08772U,
  0xbf9dc9e0beacd7ebU, 0x3f8c4ee2bf8ca745U, 0xbf8ec340bea23f23U, 0x3d99e1e5bfa1edc6U,
  0xbe6f05fa3fda5140U, 0xc07d464e3f8a4ce8U, 0x3f78ab75c0334169U, 0xc027e629c06814acU,
  0xc01bd5d6bf2b555eU, 0xbd820ecc407f32a2U, 0x3fd33dbbbf6b41f3U, 0xbfbb339abf7c9d17U,
  0x3edf1d83bef880b6U, 0xbf138a1cbfa1cf3eU, 0x3fa978963efcd647U, 0xc00ade9c3fd93f2bU,
  0x3f4283643ff71e5aU, 0x3ed33d95bf959cc0U, 0xbf8300d3bfddb443U, 0xbfe4389d3f6e13beU,
  0x3f109ee8bf8dbbf5U, 0x3f0760203f5ecfbcU, 0xbf8df6c9be42b272U, 0x3e0a8bb13ebb144fU,
  0xbf73cf81beed9939U, 0x3f332166be017d85U, 0xbd00c319bf8cdf51U, 0x3faf1cbf3ea0236dU,
  0xbfb0ce39bfe7108aU, 0x3bb3d35e3dced17dU, 0x3ee9414d3f3b7801U, 0x3cff4d533e42bcc3U,
  0x3f04d53dbc738d76U, 0xbc7054823e3f266bU, 0xbff2aa31c0042808U, 0x3f07fbc03f9e2bf7U,
  0xbf4a089a3f469f57U, 0xbef19f90bf36b8d6U, 0xbee791d63ea2a78fU, 0x3e8c4f91bf118371U,
  0x3fbbe8a9bf15e93fU, 0xbf8cd92cbf2ee1e7U, 0xbf04c6343f973787U, 0x3f8e595bbef49210U,
  0xbfa910aebf0d330eU, 0xbf822f723fa23a99U, 0x3f81f77bbf835750U, 0xbebf1bfbbf866b92U,
  0x3f4cc72fc011eb17U, 0xbf3778aebf1d80eeU, 0xbfbff3b23fb49b00U, 0x3f15b6eebfa281d9U,
  0xbf9c0bf9bfc78700U, 0x3f7944db3f07e44aU, 0x403a0ae83e5ff2a2U, 0xbffd407c3f9c60baU,
  0xbe6106eabea55b18U, 0xbed2733ebf1b444dU, 0xbf4b5cdb3e03bef3U, 0x3e7b02efbdfb1213U,
  0xbf15d623bf886ea6U, 0x3e9841a5c0163630U, 0xbf20c0c43efde9d1U, 0xbf328c5fbe094dc0U,
  0x3e4e0844bf5bd134U, 0xbf89da31bf182583U, 0x3ea958dd3ca3e0feU, 0x3f9caf2cbfb114c7U,
  0x3e14aa703ee8da58U, 0xbf9fe3cd3e17542eU, 0xbf9bbb17be6bd8c8U, 0x3e95c8bdbe889f6dU,
  0xbdfe7d98bfa0bfa7U, 0xc02b1587bfb2f78cU, 0x3f4f6376bfab7154U, 0x3f09118c40ab7689U,
  0x3e8d1123c05290cdU, 0x3f2bc88ebd813b3eU, 0xbda4a6b13e83522cU, 0x3ce79be93f17c4b8U,
  0x4020ac593f9bd442U, 0xbf376d8fbf26d0a6U, 0xbf16f4d43f22c34cU, 0xbff764c73f034f83U,
  0x3ea457fac00fdd07U, 0xc0151cfdc0057e61U, 0xbf94bbc93eec9db1U, 0x3f4cc9a5bf126298U,
  0xbf311a4abfb034caU, 0x3f579f8b3fbcd803U, 0xbcedadd93e4a40e3U, 0x3d360bdb3ee51590U,
  0x3f9b27c4beb758c0U, 0xbf0a809fbf722e5dU, 0x3effd79dbea215c3U, 0xbe98f1d43f7ae3c6U,
  0xbec0ea66bfdabb02U, 0xbfd21ad03d1a9d39U, 0x3db72687bd0d8962U, 0x4087cdf6bc9e6278U,
  0xbf54e7cebf522c8aU, 0xbff40b553f26426aU, 0xbf8a1db5bf1b609dU, 0xbead292abcce2028U,
  0xbce28c22bf9c7acfU, 0x3eaa9cee3d5eb2d8U, 0x3fd144173fceeb42U, 0xbf4d19003ebd65cbU,
  0xbf0312563c3b2af1U, 0x3cfb8776bff89e42U, 0xbff36b2abcf7e8e7U, 0x3eb3121e3f0211beU,
  0xbf8ffa133edeeb98U, 0xbf8ab9043f8dd314U, 0x3f6faf143fab157dU, 0xbf6cd8babf51f8feU,
  0xbfdf0350bfb829bfU, 0xbfd27365bfa49687U, 0x3f576128bfd78faeU, 0x3fe3c95d3f045551U,
  0x3d1f3f3f3e788a71U, 0xbe2443553e26c8e3U, 0x3e554811bed25c8aU, 0xbe9005b23d25c6eaU,
  0x3d2fe1b8be2dac42U, 0x3fa508c64007aaf6U, 0x3e47f5d33f14b55bU, 0xbee799d93e3026e4U,
  0x3f89b5633eab7996U, 0xbf1ea49e3fb1c36aU, 0x3f9bbc3e3f6804ebU, 0xbebe009cbf47b0b8U,
  0xbfdae8113f1fc676U, 0xbe98dadfbf0519acU, 0x3fe74e76bebdc753U, 0x3f1d284dbf3f1ef1U,
  0xbf137bc73d17d1aeU, 0x3e226d573f37873bU, 0xbf53b936c0154585U, 0x3de49317bf491e54U,
  0x3e95ffeebf025c38U, 0xbf8dc42b3f17921aU, 0xbf320efcbfbdc98eU, 0xbff6c8e5bf84d09fU,
  0x3f66fd8cbf82f575U, 0x3f0b8739bf792601U, 0x3fd2040a3f9caf3fU, 0xbf75eaba3df4100bU,
  0x3f882712bd4c4216U, 0x3e22abeebf2604bcU, 0xbf377b163f35c87aU, 0xc04f8a18bf03c140U,
  0xbedbc4de3e466b3bU, 0x3f46d863be9105c9U, 0x3fd75224bd69df8eU, 0xbe9128d33f3930e4U,
  0x3ed3b8233fe5675eU, 0xbddd5ef5be856ff3U, 0xbff8cf4e3fa77a45U, 0x3f9203e53e87adc6U,
  0x3f184e2f3f1f4d9cU, 0xbf012bdc3f42736cU, 0x3f4a0b52bda36376U, 0x3d44cae7bf85071bU,
  0xbf190142c05ec4deU, 0x3d4ea322be5d309fU, 0x3ec254e9bebf6abdU, 0xbf49f925bd175e57U,
  0xbe9da571be60283cU, 0xbd0f79bbbf54f1abU, 0xc0546193bdd0e23cU, 0xbf18c09e4064af67U,
  0x3fb32819bfc47e9cU, 0xbf4df24b3f152a6dU, 0x3f5de974bff0bed8U, 0xc0087321bea1ee25U,
  0xbf4077993f4ba698U, 0x3f02e863bf9172a0U, 0xbeb8faffbfb3c7b7U, 0x3f07fd01c017da5bU,
  0xbf2b766c40345588U, 0xc00f1a2dc0980464U, 0xc098067cbed4e4baU, 0xbf0cf67fc0074f2eU,
  0xbfa87b183f5dc22fU, 0x3f10b7b7bf253f77U, 0xbf0ea92a3ea3b0d5U, 0xbe0583c93dfc845aU,
  0xbdf7f452be1c0b10U, 0xbf1d5f833dff7584U, 0xbee072173fae3c8aU, 0xbd3a98afc000e262U,
  0x3ef6b06a3f84334dU, 0xbf5cf62c3f501fceU, 0xbf677154c0483392U, 0xc046c87abf48d770U,
  0xbb78ef5dbf4a381eU, 0x40380af0bf1a321fU, 0xbf468a91b7aeecffU, 0x3d2d26273cd9ec04U,
  0xbdcd0b9ebf22e350U, 0xbf7f327b3d8561b7U, 0xbda3f7b63ec6e331U, 0xbed490fc3f4685cdU,
  0xbf9442dbc045dffaU, 0x3f80a9043fe87697U, 0xbfada3ec3e3d5e59U, 0x3e2765703f2ffffcU,
  0x3f0dd07abfb57bc4U, 0xbfe930ee3ea0608bU, 0xbfae6b9ac08dfdfcU, 0x3f18549a3fc4abf8U,
  0x3ea5b0f93d7af195U, 0x3e9b54f13f963ea5U, 0x3f87335f3f0bf2feU, 0x3ecb849f3ed60eb7U,
  0x3f6beab5bf1d38beU, 0x3f0c4816c0054ce4U, 0xbeab61a73f1b9cbdU, 0xbee7e441be34c6f3U,
  0x3e57a0d4be4cca98U, 0x3c272053bf27b8d4U, 0xbf784f0d3e9ab15aU, 0xbddc79c5400b3a55U,
  0x3fac3474be6d1f47U, 0xbfba71e9bf171c9bU, 0xbeb146cbbf1b15b5U, 0xbeea03eb3dba2a20U,
  0x3eaba3efbea9a09dU, 0x3faa9ad9bfa875cbU, 0xbff420a43f883f83U, 0x3fd208e93f76dc66U,
  0xbf1a6dcabf5817d3U, 0x3b425575bf198f12U, 0xbee8b63fbf3610a0U, 0x3fe52aecbd7b39f9U,
  0x3ff201863f699262U, 0xbf7ebf95be4e4f03U, 0xbe1bcdd4bed47800U, 0x3f6e083abf36284dU,
  0xbf546ab93e544996U, 0x3d48bf663f76eee0U, 0x3e78cef4bf2fdfd0U, 0x3ce88fa33c1752c9U,
  0x3e2fc5c1bb8bc389U, 0xbe4552833dc88693U, 0xbe589bf7be8ff5efU, 0xbe62b524be8d1ec4U,
  0xbdb532c1beaa5e0cU, 0x3f0d40d33f39a0efU, 0x3d1d31ebbf16de99U, 0xbf0f93273d11a231U,
  0xbf0b2e74c0139b29U, 0xc005f1a5be44e5acU, 0x3ddb8699be9f2c76U, 0xbf186c033f8bc065U,
  0x3f785655be5f5829U, 0xbf0617cebea7bb81U, 0xbe6ea43f3e782b27U, 0x3f51acecbe602be4U,
  0xbea088b13e0ba3e9U, 0xbd472c8e3f7bb96aU, 0x3f7273e33fa3cee3U, 0xbf886a15beee1597U,
  0xbea569e1bddf4714U, 0xbcffc3d4bde5ac2cU, 0xbe075cb7becf1184U, 0xbed095da3a6e3b1cU,
  0x3f6a7e3abfae2d95U, 0xbf9987b13fc2ed94U, 0xbec0e2d83f4b9201U, 0xbf73f946bf80e9fdU,
  0xbd999bb33de58300U, 0x3d935144bf763eefU, 0xbe95a419bdab5e63U, 0xbff5b0c1bf991cb1U,
  0x3ea9d3e13ec4051eU, 0x3f65e25d3eb1f6fcU, 0xbf767498bf93131eU, 0xbf9adca8bd0a1c7aU,
  0xbe8d7021bf51f103U, 0x3f6ac66d3d038fe7U, 0xbf0ec0cbbfd20c16U, 0x3f07dc1a401cdf01U,
  0xbe92d6b9bf0471a4U, 0x3ed7c2f73e9953f7U, 0x3e113f81be75461aU, 0xbf27fe823edc6af7U,
  0xbe49207c3d8685f5U, 0x3ec75f973fc7b060U, 0xbf2dc530bf862303U, 0xbe4025e93f8844c7U,
  0x3f87bbd43f0a63deU, 0xbf8c61c6bf046d0fU, 0x3fe1913bbf5f965fU, 0xbe246f253f5adc7fU,
  0x3fb6b000bf8d4681U, 0xbf8e3db33fb17344U, 0xbf94f331be860979U, 0xbeae14af3dec1de4U,
  0xbf80a9b03ff02ae5U, 0xbea502d1bd3ab17cU, 0x3f3c03813f790560U, 0xbf140a423f8bcedfU,
  0xbf917a2c3ef48896U, 0xbebd5da83f86668cU, 0xbc56534abfa73fa9U, 0xbfbd7346bf40e771U,
  0x3e6c7aefbe321ac7U, 0x3e0e20913f067ff7U, 0x3fc07c9fbe1c95eeU, 0x3f4daa22bf4d0718U,
  0x3f466f863dd97c51U, 0xbf3c7ac6bf8acb40U, 0x3f3dd2b7bf8f4f3cU, 0xbf5c5b133fe2e99eU,
  0xbeaae1a43f68dfe1U, 0xbe2f4ccb3e8a5089U, 0x3fa463593fd0ca12U, 0xbf78141f3f3f9315U,
  0xbfbdad37c0081c21U, 0xbf45f8be3f900d7bU, 0x3d30d1ab3d4794d9U, 0xbf82ccd83f27a377U,
  0x3f2aabcfc03c12f5U, 0xbdd7a2a73de1a7e2U, 0x3fd336ffbf34e9b8U, 0xc00abada3fc4e19dU,
  0xbfa5b9f83b940983U, 0xbf4ba9a1c06e7b91U, 0xbff9424f3f6aa3faU, 0xbf94ba483f541897U,
  0xbf2d2757c0927e79U, 0xbf2b69bc3f28c1f1U, 0x3f95d2e5bfd76ec9U, 0x3f17361f3f655fcbU,
  0xbd9ccb6f3f9220a3U, 0xc01044493dc7c061U, 0xc061b9eabf16a1b1U, 0xbfba77bb3d83d14bU,
  0xbe7db7d3c048dc9bU, 0x3f8d164f3f29e16cU, 0xc0401e78bf920789U, 0xc05b6efdbfc31095U,
  0x3ff023fd3fad9261U, 0xbfe21d453f6a6cc6U, 0xbea39736bfdb7302U, 0xbf85c6e73f1c14b1U,
  0xbd359d543f1cdf0fU, 0x3f6f30523fb80784U, 0xbd8879b2bdf3571bU, 0xc02f99a5bf8f80cbU,
  0x401860433fbafab7U, 0xc00c3c203f099289U, 0xbf11b84dbf5dfaa2U, 0xbfab34953eafbf1aU,
  0xc00c401ebf46b260U, 0xbd12adc43f44053eU, 0xc07034d2bf90e1dcU, 0x3f14c10cbf209107U,
  0xbfa10d34bedfaf7cU, 0x3eb75fd8bfa8df92U, 0xbe9f592bbf4e4a07U, 0x3f6e60abbd976abeU,
  0x3f233b0bc038419aU, 0x3ff63432bfb48e99U, 0x3f6fbc5bbfc378d8U, 0xbfc44706bf37fa16U,
  0xbea5ef1fc0441152U, 0xbea3c9cbbdb0942aU, 0xbeb2ea36c004ef12U, 0xbfb95ad63f105a84U,
  0x3fbf1331bef35fd4U, 0xc03b46c8bf44f704U, 0xc04e66e83f26d300U, 0xc00beee7bef90285U,
  0x3dc4b5103f7c37ecU, 0xbfa6aa3f3f93cc98U, 0xbf289fd43fac1ae3U, 0xbf02cbc1be8283f8U,
  0xbd9bc2bac03f2ff1U, 0xbf8e57443fb944a5U, 0x3f8999b93f91f246U, 0xbf972c1e3fbf235dU,
  0xc04e4dd43f8e64d0U, 0x3f9e28003ebffb63U, 0xbf563cb9bed4cd2eU, 0xbfdd5279bfbbdc0dU,
  0x3f53e994be8744feU, 0xbef6e7c6bf50a323U, 0xbf9f48cbbee2d56eU, 0xbe07221a3fbc8bf1U,
  0xbf12a6c93f224ffaU, 0xc00232dbbf8f4ba0U, 0xbee92bb13ed38533U, 0x3f266291bf49bb2dU,
  0xbe8ebde7bf35e9b1U, 0xbf99e514befda114U, 0x3fe4873fbfe56b24U, 0x3f0a7f783e5cefd2U,
  0xc002dbe5bf57318aU, 0x3f9d8780c01291d7U, 0xbf2aa26bbf9d2bbbU, 0xbe0bae57bf82324dU,
  0xbfa18da6bf43a456U, 0xbff65e263e81a728U, 0xbfe03c293ed5672aU, 0x3f4bc3a53fedb4b1U,
  0x3fb8156e3f05b6c8U, 0xbfaaa0d33ecac55fU, 0x3e9a1c4ebd19945dU, 0x3f316765bf858768U,
  0xbdbd911cbf349146U, 0x3f5be8df3ef9ce63U, 0x3ddb9169bfc62565U, 0x3dcc8f67c01e4acfU,
  0x3f2fddc6bf62b54cU, 0x3f6290323f086e37U, 0x3e49c463c03a6d9dU, 0xc0576a0dbfaf44bdU,
  0x3daa9e54bfe131bbU, 0xbe650a36bfb2e3d0U, 0x3d64b0a9bf869e92U, 0x40553e61bec4b29bU,
  0xbc8e5c14c03b2e9dU, 0xbe4518573f1fe7d1U, 0xbf3d81293ef5d387U, 0xbf174b773fe84b1dU,
  0x3ea24c063fe7b5e2U, 0xbe7c7bcd3f562019U, 0xbd4ced69c0187fbfU, 0xbefade0bbf4221edU,
  0xc02a143c3f10bf07U, 0x3f76fb8c3ec0ce02U, 0xbea41ea2be41d90fU, 0xbf345475c036a734U,
  0xc013ec273ef0ebecU, 0x3e886a2cbef6ebf7U, 0xbf006683c0029523U, 0x3fae3016bf1181cdU,
  0x3e47d2a43ec3821eU, 0x3f8b5b10be2a501eU, 0xbebcbe00bf725b3dU, 0xbfb9250b3eb6d681U,
  0x3dd2b86cbfe75ef1U, 0x3f3e20ce3d142478U, 0xbfb23c303eefb1afU, 0xbf32853f3f93cc38U,
  0x3ebfc66bbeb1cafdU, 0xbfa2aabb3ee1148bU, 0x4037860bbf1d7ee7U, 0xbf26fc68bf273281U,
  0x3ef7609640289c23U, 0xbf34319d4017d1b4U, 0x3fa61a2c3f96d2d1U, 0x4010f35cbdfedfa9U,
  0x3fa850123f32caafU, 0xbfa418d040033e76U, 0xc0323fc7bd6a9b0bU, 0xbf02f894bfcfab07U,
  0xc004a4303f1b8921U, 0x3eab2a313f6bba75U, 0xbeb29a403f126021U, 0x3e87b2013f190107U,
  0xbf25c86a3eeaec88U, 0x3f419711c0226e17U, 0x3e1d82773e6c4c41U, 0xbf727099c05099a1U,
  0xbe0530b53f883302U, 0xbd6cfd02be14245aU, 0xbef59bcf3f86d82aU, 0xbf4f04e93f3501b0U,
  0x3e4e1d12bfa5cf65U, 0xbf00669f3ee6c208U, 0xbea16dd13e6bb051U, 0xc01484c63e9880baU,
  0x3ce538a6bdac309bU, 0xbfc3857dbff6648fU, 0xbf2f0db63f8f16e3U, 0x3fd5ade7bf912e91U,
  0x3f938fe13e393a96U, 0x4027ce5a3ed92e19U, 0x3fb5de47bf66c3aeU, 0xbf81d93cbeca33ceU,
  0x3e754c39bf41ae85U, 0x3e21caf13f2bf926U, 0xbf8d37d5bf9ee884U, 0xbfc382723ebc01deU,
  0x402daa7abee0e4daU, 0x3e58481a3fba7b45U, 0x3f5f1135bf085c6dU, 0xbe6e0c3ebfd1a6ebU,
  0xbf859809c05cd5b1U, 0x3f806b5cbfad96b1U, 0xbf735c17bfbe7391U, 0xbf809c8a3f790f0bU,
  0x3ea8feb8bf8fe429U, 0xbea7a3e53f5115b3U, 0xbf826a123fd2db5fU, 0xbf4e3681bf41ec77U,
  0xbf360c9c3f652efbU, 0x3f8d4cd1bfa86c54U, 0xbf227ad03eb1cc85U, 0xbe7182eb40057069U,
  0xbfc07d0b3f0caa43U, 0xc04f7a60bedb7aaeU, 0xbf0ce295bff5c075U, 0xbd8380923debf80fU,
  0xbbeb7ddebfb4487aU, 0xbe669f09c00053d8U, 0x3d53ba453e5946b4U, 0xbf89c8b33f6e62d3U,
  0x3eca836dbfb9e074U, 0xbf2ff629bfe86891U, 0xc03a88c1bfa63c34U, 0xbf8bd34e3e17d066U,
  0x3d415837bf5a3b17U, 0xbff49720c0130d00U, 0xbf3f8047c00386bdU, 0x3e66ea563ef28ec7U,
  0xbf30a35b3e4c9868U, 0xbf491dfcc044e42fU, 0xbfc9dcbe3f9813baU, 0xbf944ad1c01d184cU,
  0xc02ea198bf88a1d3U, 0xbd1c6143be664af4U, 0xbf51eb8b3e7702beU, 0x3f8a3c71beaa1ed8U,
  0xbf9106053ea1229bU, 0xbf987baa3ec6cdb5U, 0xbf90989c3fe84b0cU, 0x3ec003ebc045da44U,
  0xbe3cb8f6bf0bf8f8U, 0x3f35342ebf7e3499U, 0x3f2b692f3f0e2c50U, 0xbf04b3b23ebc57a3U,
  0xbf551bd4bfa66247U, 0xbfa4c61cbd905575U, 0xbf3f28c2bf832234U, 0x3ed0e8d83e85a9d3U,
  0x3d0be0dc3f7569edU, 0xc00f08aebe957ac1U, 0xbe5dea4bbee9e42dU, 0x3f4a9c57bf822d74U,
  0xbff79cf3c031e01dU, 0xbf97944e404d6d69U, 0xbf09da713f838f60U, 0xbfe98ecb406e064bU,
  0x3fddda5c400bc45eU, 0xbfc7d8023f026cfeU, 0xbf1ff649bf0a2294U, 0xbfa2e769bf85ffb3U,
  0x3f54c0f1c0b0ae1fU, 0xbfa7523f3f4f4199U, 0x3f32582f40945604U, 0x3fcb783cbfa60169U,
  0xbfd7cb583f61dc10U, 0xc011efa840128ac5U, 0xc0129eb53fa69ebcU, 0x3eb0cebd3f9fdd98U,
  0xbe9d88883fbed5a3U, 0x3f29ee37bfbdefffU, 0xbe19bf5dbf91b77eU, 0xc020ace5bfbccbd3U,
  0xc040a5dcbf0d493fU, 0xbfdba68c3f94a52aU, 0x3ea966fe3ff82493U, 0x3fc40fff3e36cde4U,
  0x3e84af6ebf6d474eU, 0x4070a4223ed2834bU, 0xbf0284b03ff2abefU, 0xbfe039d6bf9341d5U,
  0x3d4618a9beef9531U, 0x3fdfbe57be72865bU, 0xbf8639b03ea61799U, 0x4055af24401190d0U,
  0xbf33eed3bf80a980U, 0x3df0a5fcbfca7b93U, 0x3f059bd13f4cf47cU, 0xbf980d763e89c873U,
  0x3ea05c39bedebe03U, 0x3fb891afbd1c7258U, 0xbfbac2623ef894acU, 0xbf8e18dcbfd05ebbU,
  0xbfcd0926bfcce404U, 0x3f28e52fbcc3afbcU, 0x3ef956083f374dc7U, 0x3d59dfad3da22053U,
  0x3f6bfed3c09a216dU, 0xbdf4b031bfe0bd2fU, 0xbf61b6063f17b5bbU, 0xbedae6373ffb6281U,
  0x4021bda03f8d450eU, 0x3dbdaf42c04cf9f8U, 0xbfc008a6bf4399c8U, 0x3fbb58b83f152c07U,
  0xbf182d89bebe3d48U, 0x3fae68a5bf0e8754U, 0xbf05a8a3bf9b8181U, 0xbfc17b13bf19e853U,
  0xbfe0108cbf2bf81bU, 0xbf687a51beb78b31U, 0xbf99de163f9ae680U, 0xbeb81f51bfc38742U,
  0xbdb7ee3dbf0958fdU, 0x400dc485beed0a42U, 0xbddf04cdc03af5e4U, 0x3e85e2a9bf0f9c5dU,
  0xbc4e9006bcbec0e1U, 0x3dd45c20bd1401aeU, 0xbdf11710bda75230U, 0xbdfa38e5bb17d32eU,
  0xbda61c9d3bf5dd55U, 0x3c5cbcf33c877395U, 0xbda353e4bc760dd9U, 0x3cf05cf1bd30c048U,
  0x3dae0585bc84e85eU, 0x3d27d5dbbdefd6a7U, 0x3c373f4dbd04e11cU, 0x3d8dcb843d09fff6U,
  0xbd49f0e03bdf7c22U, 0xbd3b8c813bb9b1efU, 0xbe059a87bd5a90abU, 0x3ca0b805bdcd847dU,
  0x3c6e1036bdf16f6dU, 0xbcabb1453c8758beU, 0x3ca2f5c6bd3bfaa5U, 0xbde799a2bcbcbc8eU,
  0x3c04b35bbd29fd4fU, 0x3cb852fabd5e1579U, 0xbe015510bdfa0829U, 0xbe1d884fbe0a3c49U,
  0xbd78385cbbfb3f69U, 0x3d0ebfd3be202aa3U, 0x3d7dbcdebc3c98b3U, 0xbddafbb3bd95b1c1U,
  0xbddf4300bd51fc4cU, 0xbdaeb16dbc95e0deU, 0x3d49b48ebe0f7d2dU, 0x3ae6d68c3d0b9bb8U,
  0xbe0cdafebdeff752U, 0xbda2247c3c179c70U, 0xbccf4066bc463af5U, 0xbdaca34ebcd15205U,
  0xbe0e19453cbbf6a7U, 0x3dd5e5493d31a628U, 0xbd8acfea3d0012b2U, 0xbd3939b83daa9f0cU,
  0x3dcd6e4abda96dedU, 0xbe1293f3bdd25792U, 0xbc73c2b2bc915e19U, 0xbdf7d3a1bc72931cU,
  0x3cf49cd8bbd8c6acU, 0x3bf48697bd66058eU, 0xbdc0c4c7be00e7d6U, 0xbe1fc40bbd3d4d33U,
  0xbd85cabe3c6f7800U, 0xbdf0c17c3cf7b2c7U, 0xbe250572bbca4880U, 0xbdbf0bb9bd206d79U,
  0xbd71c9dc3db0d79dU, 0xbe347cf4bdbd669eU, 0xbd31e0873de3794cU, 0xbdcf701bbd4d51d0U,
  0x3d38bd3ebd9e8c11U, 0x3d909de0be2018b6U, 0xbdd9279bbe061a25U, 0xbdbbd5edbd0d3d2cU,
  0xbc0575b0be0149c2U, 0x3dab1683bdc049aaU, 0xbd91dd133dad25d2U, 0x3d8c0f41be19788fU,
  0xc0166a06be03cb39U, 0xbfdafa4ac02dd00cU, 0x3f3e2686bf36a035U, 0xbf91dee2bfd28847U,
  0x3e7dd4393ffefe30U, 0xbe26d8e93e8bdd57U, 0x3ed0a5b8be08abbfU, 0xbd627fc33e04722dU,
  0xbf6652923f54778bU, 0x3e55dea0bfaa29b2U, 0xc057fc14bfaf0f0dU, 0xbe0c88c7bedfebeeU,
  0xbe1b1a123f469ff3U, 0x3f496c3a3f065eedU, 0xbf8e64993ea3cc5aU, 0x3f08fabb3f4ac2daU,
  0xc00ae4b1bf8e5078U, 0xbfa6b2fabf26cf0aU, 0x3f093b703fe5668eU, 0x3e8bd086c00bdb80U,
  0xbf798e5cc05256faU, 0x3f7a2cc83f00b980U, 0x402a13b7bc06edd0U, 0xbf9c264740231b2aU,
  0xbfa20630c083e009U, 0x402c32a23eb7d0f5U, 0x3fb10f003e8195d5U, 0xbfcb95f33f4af17eU,
  0x3e2c4d64bf5dd686U, 0xbfc92276bef57c95U, 0x3f3017fe3f706595U, 0x3e491c3ebf797349U,
  0x3eb46ee8bf7f09b6U, 0x3f83da07c01e13b1U, 0x3f77d5c6be23e5a6U, 0x3ee3b07ebf13d78bU,
  0xbf3af2c2bfa3082bU, 0xc02fcca9be74b63aU, 0x3ecbb6713f7b3a4cU, 0x3e1ab559bef37bb1U,
  0xc030ceb93ead53adU, 0xbe5d7630be1e994eU, 0x3f255da63f480f94U, 0xbfe244693e1e0617U,
  0x3e2c13b0bfdfe014U, 0xbe223bf53e32e7c6U, 0xbfe6063abdd4dc25U, 0xbf34509b3e44e2c0U,
  0xbed9e58ebb3c3462U, 0xbf8656c83fa43735U, 0xbf11360e3d911548U, 0xc03336e5bf2fc6dbU,
  0xbf8ed475bead3f03U, 0xbd19ec84c01c6efcU, 0xbf9c59a33e1f58cdU, 0xbf00c563be0ab071U,
  0x3e0b68c2bff3d15aU, 0x3eb6e05a3f350f25U, 0x3dcfc5cbbfe2815aU, 0xc015339b3f80aee8U,
  0x3dafaf53be9f8dd7U, 0xbe911da0bec86115U, 0xbe331a9ebff6b88bU, 0xc002e0cfbf9a2fa9U,
  0x3f8190ae3ff1513eU, 0x3f6d0ba5bfbd6114U, 0xbf5b591dbfa96f88U, 0x3f3d292d3f238b88U,
  0xbfe81797bf59601eU, 0xbf58cb2bbf8eda0eU, 0xbedef656befb49dfU, 0x3fb108b73edfbdd7U,
  0xc044207f404c5d5eU, 0xbe30a3d3bf70c9dfU, 0x3b99918d3e563cedU, 0x3ee9ced1bf627700U,
  0xbdedd0e5bde5fdd2U, 0xbf9d4215c09ed087U, 0xbd099158bed87bb2U, 0x3f861a5abf8571baU,
  0xc075efe9bf53cc92U, 0x3fa3ef83bf9ca19cU, 0x3f6a54a4bf47d8dcU, 0xbcfd8e3bc01f8e97U,
  0xbed285193faeaa6cU, 0x3f59d961bef4e83aU, 0xbf93aaf7bfc13cecU, 0xbf46b1c33fdeb653U,
  0xbe79b129bfd469faU, 0xbe561a87bf9e0030U, 0xc01b62143ebd1a4eU, 0xbf260b633f5245d0U,
  0xbd7c36c43eebe630U, 0xc00d0cdbbc989615U, 0x3fa56cdbbef65422U, 0xc03d895ac035d7abU,
  0xbfc18e05be2bf39bU, 0x3f4385b73ee9c1dbU, 0x3f01e5143e96a4a7U, 0xbf47302c3e38b2acU,
  0xbf4fd19ac0593b9fU, 0x3eadc933bfae6333U, 0xbff4ffd7bf6b10d6U, 0xbe0a064fbee451c8U,
  0xc0374ddbbf2a75cfU, 0x3f1e7306bfc81a1aU, 0xbf8f73e23ed96157U, 0x3ecb9b2ebeef1106U,
  0x3ee78d33c098ff4bU, 0xbf66e2dabfa501c2U, 0x3f33f082be14b8f4U, 0x3eb894613f0bc2c4U,
  0x3fb44550bd607580U, 0x3e2de30abfe4fc6aU, 0xbf828d623f8447dcU, 0x3f099ab13f8c6b51U,
  0x3ec90c59bf9948b4U, 0x3f9d25c33dcccdecU, 0xbfc913e2c0022fecU, 0xbe7f2d4ebedb163dU,
  0xbf6905883e34f0deU, 0x3db2df0c3f4a1a2bU, 0xbfe2b2a93ee5c14eU, 0x3ead1cfbbf94e302U,
  0x3bdaec9ebe5f4067U, 0xbea761503f66a70eU, 0xbee1f5b7bfbb55a7U, 0x3d7426483dd43978U,
  0xbf9e6cf63ee0f4b3U, 0x3ecaa5fac01bf20aU, 0xbe9570b2bf1c20a5U, 0xc00189de3f628bc4U,
  0x3fa48b1fbef80d72U, 0x3f9b13fa3f7e1555U, 0xbe842c78bf1fc4b1U, 0xbf2a3cee3db46b9bU,
  0xbf83f388bf278123U, 0xbfa1a0893e87618dU, 0xbec76f9cbef3c3a1U, 0xbf94a48cbf96fe5cU,
  0x3fa3f3eec021184dU, 0xbf8e2070bf323c48U, 0x3f041a1bc01ec573U, 0xbee098f83e29241eU,
  0xbe6d249dbeb7f39fU, 0xbeebf89cbebed257U, 0x3f00799cbeea8e0aU, 0xbf8546d9bf4fbaddU,
  0x3f1fd4153f71f64bU, 0xbfa1fd13c0094930U, 0xc01b8831bfe21b83U, 0x3eca2b13c02d3ba4U,
  0xbf7bb7233e10379bU, 0xbeca09e03e91c0d7U, 0xbe4bf283bff2e2b7U, 0xbf96f3dcc0590994U,
  0xbdbad35dbf4faf5fU, 0x3ed1ad843f384c89U, 0x3fb2ea5cc0b33f5bU, 0xbf2a0ef8beba6fc3U,
  0xbf5d4e33bfb8d42aU, 0xbf193f08bfbde10fU, 0xc04de372c007ee4cU, 0x3e58639c405ecc14U,
  0x3feb1aaabe8f841eU, 0xc01197773ecfb311U, 0xbea857643e22c500U, 0x3e9891d53fb4d9fbU,
  0x4051065b3e61de3bU, 0xbe298e7abfb217ccU, 0xbf341e64bf6074a8U, 0xbf8386b4be010cc7U,
  0xbf8c376bbe2d1969U, 0xc061efe63f45e0d3U, 0xbe6f0f4cbf808f90U, 0xbf46531d3eab6e88U,
  0x3eef27d0bf592513U, 0x3f9be850bf2a2341U, 0xbf3d2460c015219cU, 0x3e8fa314c07b28f3U,
  0xc0009676bf867342U, 0xbeccc1d63fbdf135U, 0x3f364818c0945be8U, 0x3f0cbb45bff16c29U,
  0x3ed285b3c034d61bU, 0xbf329833be54789eU, 0x3f4da2903ed28a45U, 0x3e0f0e5f3d22d66cU,
  0x3de0b8f23f3ce0b1U, 0x3f131614bf3dfa74U, 0xbeaa6c3ebfc52d22U, 0x3e818a74bfd0913fU,
  0x3da1bcaf3dde187aU, 0xbcb71b95be0d6a9aU, 0x3ce3bb8fbd771d82U, 0xbdd800c4bd87ec39U,
  0xbce84ab13c3b9aa1U, 0xbc24b981bc4be1b3U, 0xbe1e0a373c2b345fU, 0x3cce27353da39a19U,
  0x3c8f10b7be08ca65U, 0x3c843bb5be28c872U, 0xbddab83e3cf77009U, 0xbe2382a5be02f23cU,
  0xbe0d5cb7bd8e9e74U, 0x3caaaebdbd044916U, 0xbe04c5273c41c8eaU, 0xbe10ac6cbd1ce7eaU,
  0xbe2b06b0bcdce25fU, 0xbc9509f93ba35ed4U, 0xbdc7168bbdf46fb7U, 0xbdc9c0debd9bb8cbU,
  0x3d13ebe4be2cc2fbU, 0x3d8472acbdd4be93U, 0x3cee657b3d115222U, 0xbe0b9b87bcc8b9a9U,
  0xbe262302bdb817aeU, 0xbd17d338bd297708U, 0x3d6729ebbc32fc49U, 0x3d82bf3e3c9414faU,
  0xbcfc0570be12f1b8U, 0x3d0b49043c8e0320U, 0xbdb9fad23de842deU, 0x3dd61136bdb9808eU,
  0x3f0cb826bf2ddac9U, 0xbef7b5a63ecd0138U, 0x3f681374bfcf9affU, 0xbf394ecdbf8e29b4U,
  0xbfce6e70bf45818aU, 0x3e84f9443f3fde7dU, 0xc09ba02c3faa75c6U, 0xbeaa84f1bfa1caf6U,
  0xbff477203e9b4182U, 0x3f21acb73f18d694U, 0x3fcdd8ea3eb0c029U, 0x3f9b3f693f28e764U,
  0xbe3049b0c04350efU, 0x3de20518c0288e00U, 0xbf1db1abbfe9ccc0U, 0xc0013da8bfb8e89aU,
  0xbf60b83abd7e2aa3U, 0x3f3aa164bf74bfb6U, 0xc012f9993f7e0c8aU, 0xbd5a9f523f1136d5U,
  0xbed6a12fbe75aaddU, 0xbfba565fbf7212e8U, 0xbf94efc5bfbdf8b4U, 0xbf9b9df43f4ee262U,
  0xbf71e456bcf843afU, 0xbdd7c0043f37465bU, 0xbf3adf17bfb248c7U, 0x3e9c5a3cbf914d3aU,
  0x3d41e32cbfad8536U, 0xbf80e9f33f7e2c42U, 0xbb31498f3f7b3db9U, 0xbfa300c4bf79ec05U,
  0xc03e2f7c3f6fef28U, 0xbf9352c5befa73f6U, 0xbf93e4263f674022U, 0x3f6bfb393f802ce0U,
  0xbfad72e63e8f8526U, 0x3e315c093f29ad26U, 0x3eb1eb04bf74e027U, 0xbff222eebea21b66U,
  0xbff38acbc052c786U, 0x3dd82ff6c083bb88U, 0xc0005aa33f106ec2U, 0xbe3de61abdeb4493U,
  0x3eaf525dc08fc7a0U, 0xc00ab3ecbfd49394U, 0xbe52035fbd065920U, 0xbe7ff969bf244814U,
  0x3f241b723fa62285U, 0x3dcc5372bfa9e4afU, 0x3f2b2473be90f81aU, 0xbf64a3083f3aa023U,
  0xbf6cbbd5c0246989U, 0xbfd5da17bf5b73ceU, 0xbfb97c033fb60b59U, 0xbf524fdabf044192U,
  0xc0317086be58d33dU, 0xbf3a8df43f8ad279U, 0xbd8f822abf1312e1U, 0x3e8260303eb03f40U,
  0xbde217f63fbafcc6U, 0x3ead68ef4000aeadU, 0x3f0c7620c0971cacU, 0x403f604bbf205903U,
  0x3dcd6370be22add2U, 0x3cd652b1bd881bf8U, 0xbcda1e1ebe204e46U, 0xbe1ba1e6be36deabU,
  0xbdfafd3cbe093930U, 0x3d9564083aa70ea3U, 0xbe3ce789be00e008U, 0xbddbf770be3443beU,
  0xbe464ac5be29e81aU, 0xbd9a2843bcc082e6U, 0xbd942d403cf5a809U, 0xbcb988b63d04d716U,
  0x3aec128ebea214f9U, 0xbc01fc03be06c9d2U, 0xbdd14295bbdc72c2U, 0xbe8a3cd8bcb15fc6U,
  0xbda803eabda1e43cU, 0x3d85fb01be7fef49U, 0xbdc38281bc9dac63U, 0x3cc9e371be2da5a6U,
  0x3d554604be497fdcU, 0x3d1858973d50cad8U, 0xbe8385a3be01f573U, 0xbe0a119c3c8662c0U,
  0xbe8a33313c616598U, 0xbcf412a0be50dea6U, 0xbe3f08e03d51c6abU, 0x3bda5b38be1e3136U,
  0x3cd2f360be1d0079U, 0x3cf92caebd42c0e0U, 0xbe167123bdd0cc3cU, 0x3dbf10a4bdf504d0U,
  0x400af9d9bf4c82baU, 0xbc0caec03f1f7d13U, 0x3ef35c04be3fc9f7U, 0xbda9af463f1c47c2U,
  0xbf1089e6bfaffbe4U, 0x3efaac59bf0cbd24U, 0xc0357175c0034f21U, 0xbfac19e0bf751570U,
  0x3dfa476dbf322015U, 0xbfb9f3243defc8c5U, 0xbf5ff09bc081d297U, 0x3e1ca45fbf61cac4U,
  0xbe8f0f43c0f8a238U, 0x3d0716703fb00994U, 0xbed99558bd65d0aeU, 0xbf989e253f2395a5U,
  0x3efb1ab43dcfb321U, 0xbf9a8720bf83209eU, 0xbd3ba124c013a5a2U, 0x3dd5690e3d860593U,
  0xbffd9655be77013cU, 0xc0054ae8bed68c8bU, 0xc04112edbf5b66d0U, 0xbf084ba23fb255ccU,
  0x3f28cbc03ea5a4c0U, 0xbf855f86bf89d263U, 0x3e8e7fba3eb47620U, 0xc0189e62bfe48045U,
  0x3d7429293b2480fdU, 0x3f95943cbf019e6fU, 0x3eb4d546bf491e82U, 0x3ee8d4cc3f1afbeaU,
  0x3f9df5cbbfb2cfb5U, 0x3ef665b1be679f35U, 0xbf450e1dbec9221fU, 0x3ef03664c04a1befU,
  0xbfd831c6bf889859U, 0xbf0eccba3e3665ecU, 0xc0072e74bd3319f1U, 0xbe4fa1d33ecbd7ceU,
  0x3ff207e4bf6e1617U, 0xbeabf5ecbe9727ddU, 0xbfa2c481bfe30913U, 0x3fc15ab03e93b379U,
  0xbe0755a4bfbc7d03U, 0x3e9d4295bff581e9U, 0xbfc5319f3fcd3a4dU, 0xbcb41cccc020b39eU,
  0x3f62d180bf199169U, 0xbf3bc47dbfd40306U, 0x3e16619fbf3976b8U, 0xbf13e94dc0334bb8U,
  0xbf06f972bfe36926U, 0x3dd1dd063f3ad5b7U, 0xbf9fbb60be4e03b7U, 0x3c8b67413f6372ceU,
  0xbe071263bec6aa52U, 0xc01ea91fbda969a9U, 0xbf9ac6cebecd1301U, 0x3cc9bb04c0304528U,
  0xbd5ab9443f613280U, 0xbe4b2d61bf5e75fbU, 0x3f999d33c01a2303U, 0xbbebc9d3bf68d63cU,
  0x3d41ad5e3d76e080U, 0x3d9cf674bd995de8U, 0xbd4b73b5be45fcebU, 0xbd96693e3c845cafU,
  0x3c1b2db7be349b44U, 0xbd31bceabdeff388U, 0xbc52d39cbd8c79bfU, 0xbd2a7518bd083edfU,
  0xbd80d32dbe09dc70U, 0xbd81a274bde559dfU, 0xbdcd6cf33c9551f7U, 0xbe0622753daefad9U,
  0xbdc203c7bb92a35dU, 0xbd5716f4bd037bdaU, 0xbdde2239bcf199dbU, 0x3da5b81bbde9e79cU,
  0xbe295c523d58f1deU, 0xbdda5263bdbb2881U, 0xbe224e80bd4bc130U, 0xbe032e243dbc3178U,
  0xbdca1734be32ddf4U, 0x3d22124ebda91ac7U, 0xbe2e145fbdc5cca1U, 0xbc2123783c830334U,
  0xbe4027973d33b03aU, 0x3d1af9a8bd3b538dU, 0xbce2a6563c154959U, 0xbd965643bdeb77aeU,
  0xbd929b8abdf4f0cbU, 0x3c99c3cc3d7cf351U, 0xbd887004bd743efeU, 0x3d62dab0bd69dba5U,
  0x3b9e71773ff32996U, 0xbfac7516bd0367aaU, 0x3f7c4d13bfe06e26U, 0xbf8da2d4bebbb9a6U,
  0xbeebf9a0c0109e5dU, 0x3e1fff573dee21a1U, 0xbf01dd69bfd8bff7U, 0x3e52fa3c3fba65d0U,
  0x3f952a84bfe266c8U, 0xc0001580bf37edacU, 0x3f42973ebf6ddb4cU, 0xc00a7f2ac001b353U,
  0x3f327c53be765b77U, 0x3ee99331bf898669U, 0x3f21873cbf427d02U, 0xbfc51f243f0af66fU,
  0xbf39dd07bf5752b3U, 0xbf18ef62bf2a8522U, 0xbfcbfbaabf150674U, 0xbdc2a721bfc24faaU,
  0xbf80ba74bf8c0c4fU, 0xbf17d954bf43f22aU, 0xc01bfa48bf5cec39U, 0xbf8814eabf26340eU,
  0xbfdd8474bfb1c22eU, 0x3eae59143f507f71U, 0x3e94f66e3e1a2cebU, 0xbfa396093f8f0d8cU,
  0xbd545fecc039ba5bU, 0x3e64b1d33f4685dfU, 0x3f05a91fc03ddea7U, 0xc0052936beeb34f8U,
  0x3fa717163f25573aU, 0xbfa1b281bf842c62U, 0x3f574ae23ed387eaU, 0xc023b539bf200551U,
  0x3eadf63cbfa694ccU, 0xbef04bf8beac6fe7U, 0xc002682bbd3a78bbU, 0xc0404aa9bf7ebb07U,
  0xbefbf055bfac4161U, 0x3f8cfa23bed20b4fU, 0xbefa55d93d276d38U, 0xbe62411dbff668d7U,
  0xbd909ec2bf478ea3U, 0x3f204e693f2ed62dU, 0xbf2d827fbff93ecbU, 0xbf2996c43ee4f6bfU,
  0xbf056f913e715cb5U, 0xbfad8235bf40fcfeU, 0x3f01ba733f40b01fU, 0x3f2bf2623c64f7afU,
  0xc01c9bb2be13e2fdU, 0x3f184c15bf2e6defU, 0xc0069b31bf94fc16U, 0x3e1e4eb53dfcdb33U,
  0xbc73f54fbf8f1f9fU, 0xc08138d93e99eed1U, 0xbf8e68c43f2cc3d5U, 0x3f7d098dbf39f046U,
  0xbceac6d9bfeb8cbaU, 0xbebe43fe3e9a8646U, 0x3e9e379e3f4685c8U, 0xc094c29fbf05c820U,
  0xc01794363f2052abU, 0x3f7527053df6daeaU, 0x3dd6c4f2bf83fda8U, 0xbf12494a3fb9d764U,
  0xbf820a76c04644b0U, 0xbfbad9823e329294U, 0xbe92343fc000a24bU, 0x3ee82dd6400aaa59U,
  0x3ecd6ecdbf15372eU, 0xbfd3ecdbbfc2354bU, 0xbf666b393e8c3e55U, 0xbd04e108bf7ccc24U,
  0xbf0724873e017f7bU, 0x3f1efe9cc0269cabU, 0xbf2aa7debfa5c37dU, 0xbe35cfd63e8ca8a0U,
  0xbf26c8153e9c29ecU, 0xbf8b7719bf67450aU, 0xbeb363f6be7494b6U, 0xc00e663dbf26c2a2U,
  0xc016f07ebf0b0e5fU, 0x3f4a1666bf384ae5U, 0xbf86f7b13d986398U, 0xc04dd12d3e481784U,
  0xbfa75857bf8a0de4U, 0x3e1d6aaabf1e8b8aU, 0x3e24c327bf5c1d3fU, 0xbfbfcd093f1debdbU,
  0xbd9fd1d0bf920f7dU, 0xbf30cbccbd137a8eU, 0xbe92000fc079feb0U, 0xbe8e306abfafff2cU,
  0x4053d93c3fb36a37U, 0xc0330f623f1c3651U, 0x3e18fc453f400188U, 0x3ef77309408776a9U,
  0x3da0581dbf8cc15eU, 0x3ec1280d3f120b87U, 0xbe8aa2e8bfd61745U, 0x3f0c322a3ffaef02U,
  0x3fde93383d58fcb3U, 0xbf7c43afbf664f87U, 0x3ef0f7dec007efc3U, 0xc05a18eabfb2f480U,
  0xbff16232be49d263U, 0xbf4fdd753e873a6dU, 0xbe7c255d3f36c2f1U, 0xbc8d353e3efe6c28U,
  0xbfa1e9d4bf11a507U, 0x4019c32dbf839bf9U, 0xbdb42983beb39baeU, 0xc05a391fc0ad2e17U,
  0xbf895f9a406996e9U, 0x3fa8d4c93eef0fc5U, 0x3e7a03713fd33afcU, 0x3edc8a25bf315ecdU,
  0xbf006e5abea0db70U, 0xbf0e2d33bfb0195cU, 0x3f3347f5bf129205U, 0xbfb35d88bde6cb57U,
  0x3dc6b9223e6d1532U, 0x3cd4964a3fed89b7U, 0x3e01d682bfd36ecfU, 0xc03df0503f142984U,
  0x3c85224abc71fe10U, 0xbd4f9af63d98c4dcU, 0xbe63c2523cc56aa3U, 0x3c2f6f0bbe62bae3U,
  0x3e16e8f4bd06fd5bU, 0xbe2227563d05a636U, 0xbd98d33a3d86b06cU, 0xbe021e1f3da33ecbU,
  0x3cefec93be0aa7c7U, 0xbd6a5c603debac62U, 0xbda87033be288a0eU, 0xbdc61f90be0523deU,
  0xbd9380983c6dd2c2U, 0xbdb4f2cebe5370afU, 0xbda753f8bdd5b664U, 0xbddeb212be3908d8U,
  0xbd8f7c6d3d26f0cfU, 0xbce411e4bdc90be0U, 0xbdfed5d7bd0df34eU, 0x3d91c8b43b99e30cU,
  0xbdf64f293cf30324U, 0xbe18d019bd74e120U, 0x3db23eeb3d39f85cU, 0xbe3ed2293d2c4cfdU,
  0xbd8be908be041deeU, 0xbd728fd4bd1d94a6U, 0xbe154ea9bd21fa0dU, 0xbd9d37bdbb9b2943U,
  0xbc4d3620bdc9bd9bU, 0xbdcf0deb3ce77786U, 0x3cdea9b03d56ccc7U, 0x3d2cbeeabdf1ba57U,
  0xc00c62f6c03c0325U, 0x3db9799c3fbf8fdbU, 0xbf8eaad43f840d36U, 0xbfaaca60c040448aU,
  0xbfad5b19c00662a6U, 0xbe9524703feee9c5U, 0x3de0ab99be138aa3U, 0xbec2bbf23dc43a1aU,
  0xbfbd0bac3e9d74cfU, 0x3f0af3abbfbc7e85U, 0xbf4d5eeabf1eea01U, 0xc01253e8bfb554e5U,
  0xbf50ea95bf0f1817U, 0xbf6452543e88dc9aU, 0xbf45bc2fbdff1c3fU, 0x402a22b9bd3d89c3U,
  0x3f5b8ba4bcacacd3U, 0xbf09f6fdc02344ddU, 0xbf69aaa6bf89afa7U, 0x3f8e36c4c05bca38U,
  0xbe87b303bf888fceU, 0x3fddfd013f3ef542U, 0xc018b9643bf8d958U, 0x3f2de8013e3a34d3U,
  0xbf1c28f53fb3e5d1U, 0x401ce805bfb9a049U, 0x3e46e5b240581d50U, 0xbfd39f70bfee6064U,
  0x3c70ad593f1056a8U, 0xbf0a17bb3fb36156U, 0xbf9d0d62c0758eb0U, 0x3f3e9b3fbdd02afaU,
  0xbf05f0653fcfbd19U, 0xc03c9adc3e5cc92aU, 0xbe81572d3dc0dcc6U, 0xbf4f4a42bf761c83U,
  0x3d1ce1dabf9f9d50U, 0x3ec38102bf4e58ebU, 0xbfc1fd1a3f5fd6baU, 0x3e3321ecbf67fc75U,
  0xc009414abee7c1f5U, 0xbe669ec2beadef45U, 0xbf289e463f16c330U, 0x3ed50512bf85957bU,
  0x3faad447c05bf97cU, 0x3edd5249becdc2deU, 0x3e9fd3e9be90ad94U, 0x3edc0a6abdd060a6U,
  0xbf51f53abf292954U, 0xba83f8a2bf1c31b8U, 0x3f34224b40109f2fU, 0xbdb971733fd4b108U,
  0xbf6e42363e2a40edU, 0xbe292114bf020301U, 0xc01f297d3f86cc9aU, 0xbf4145743f96d261U,
  0x3ee75d113f5ca769U, 0x408908493c454bf6U, 0xbf0d2b0e3f0221e4U, 0x3f3d763bc01428faU,
  0xbd9ab7113daf01dcU, 0xbfcc9d3bbf6cc6afU, 0xbff6ed12bfba36b4U, 0x406d52c5bd0bc01cU,
  0xc06910143eac2dd4U, 0xbf520162c063057bU, 0xbfa08a85bffa1edaU, 0x3fd3aebcbe89fa87U,
  0xc091d89fbff87269U, 0x3f70b5b93ec246d1U, 0x3fb4b0863e1ff76eU, 0x3eaa1424bf494c36U,
  0xbcf88818bf07ac2eU, 0xbf911b2abfad83b4U, 0xc0011c04c001b56fU, 0xbf8efcb5bf055878U,
  0xbfd7891d3f9230d3U, 0x3ee703dabf62dd1eU, 0xbf79bacac0588f52U, 0xc005ac13c05d85d5U,
  0xc00a15b0bfbdd6c7U, 0xbff8370ac00e7f51U, 0x3f5885c4be1cbb47U, 0x3f7e83bbbff36eadU,
  0xbf84f58bbf91cb9cU, 0x3d999aa03fde12e4U, 0xc0dd559dc04bbf90U, 0xbf8d07aabf961b29U,
  0xc0b396533ecf399cU, 0x3f9fdc2d3e86a45fU, 0xc0269a7fbf0eab11U, 0xbffbd6c93f88643eU,
  0xbc96395bbf348c26U, 0x3fb5b67ebdda9d49U, 0xbfe5157f3eae052cU, 0xbf40c0e7c0064045U,
  0xbdb2e77a3d426e0cU, 0xbe17c243bd0cab94U, 0xbe15980f3c8e2cc7U, 0x3d32fc14bd08f283U,
  0xbd894890be0066bbU, 0xbd44bb20bc358b3bU, 0xbd91a9e4be061738U, 0xbd00a771bd44adc8U,
  0xbda1f0eabde03d8bU, 0xbe51c4c73ce07ff2U, 0xbdbea841be19dae3U, 0xbc8aab18bdaeabe3U,
  0x3d2a8714bda2cc69U, 0x3d768a013cd7fc92U, 0xbdf2d1f1bd7f9641U, 0xbcf5f47dbd1d3f72U,
  0xbe1241ddbe601201U, 0xbe2d0d0cbd453d1fU, 0xbe12e315bdbaed94U, 0xbd728c91be04f7beU,
  0xbde561113c9406a6U, 0xbd920fddbd1cb79bU, 0xbdc0bb0cbde7f79bU, 0xbe2b01a7be3bbd48U,
  0xbda533f6bd9cae6fU, 0xbd87e99fbdaaac98U, 0xbe64896fbb938c5dU, 0xbd71479abdb5513eU,
  0x3c7c0130bccd2e68U, 0xbd41bcd23b269966U, 0xbe096271bd10ed2aU, 0xbca8f64ebc939734U,
  0x3f0bafbdc083a598U, 0x3fff57ddbfbcdb70U, 0x3c1ec062bea51f21U, 0x3e1432efbe82b7feU,
  0xbf987fcc3ea9aa4cU, 0xbf659c66bf3759ddU, 0xbf27d1ab3e81f8f4U, 0x3ff0ac3bbf7cf609U,
  0x3f843291bebb3732U, 0xbf34e7883d916108U, 0xbeff68223ffd9fa8U, 0x3ee988e63f8cea0bU,
  0xbfc174363fae4ffaU, 0x3f751f5ebfa0479bU, 0xbfc8fccc3f321f12U, 0x3eb43633bf84a86eU,
  0x3dffa9833fa10d7bU, 0xbe1b0bd9be9d9a37U, 0x3f6a3193be5b635fU, 0x3ec0afd3bf4c35afU,
  0x3f894df63fd3d635U, 0x3f7bdf293efd0eceU, 0xc07f1f0e3ff232f3U, 0xbf2505e5bf994fb3U,
  0xbf9d82f2bf9370d1U, 0x40089364bfc781f7U, 0xbf1bc278bd97cce6U, 0xc0230c00bffac3f8U,
  0x3d1f4c603f756c3eU, 0x3da9864fbf5b3bfbU, 0xbec6dacebebdfcdeU, 0xbdc50f3dbf458342U,
  0xbee3c10b3fad0a80U, 0x3eb15db63f40f1dbU, 0xbed9e88e3e966d52U, 0xbc91218dbf2866d9U,
  0xc0432a7cbe4ceda4U, 0x3eb8f1d6be02ddb6U, 0xc037be4ebf2ba3f9U, 0xbc3013dfbf6ef608U,
  0x3fad37c6beefc5afU, 0x3ef5d7e5c00c2b23U, 0xbf74c57e3fa5c54cU, 0x3ff73d39be6ba05aU,
  0xbf510c51c00c94f6U, 0xbede3af7bf8bae40U, 0x3f9993f5bf1608b4U, 0xc041c9e7bfa77774U,
  0xbe68b767bf8eaf4eU, 0xbbc19b1b3fb9036eU, 0xbeaf5d5d3e3b78d2U, 0x3ecc7405be0c128aU,
  0x3eeac2bdbe167377U, 0xbf7a3135bec128beU, 0xc00a041fbeb54542U, 0xbffeea773fb98d34U,
  0xbf46b6353e1525a6U, 0xbf2c5ca23ef5b937U, 0xbf193643bf29fc2eU, 0x3f024689be19ad11U,
  0xbdc90de6beb80a89U, 0xbfd111744002359eU, 0x3d65ca3abecd7adfU, 0x3f9439ce3f818f86U,
  0x409491e73ed51bbaU, 0x3f41e2b2c0136676U, 0xbf7f708abd916588U, 0xbde0f3acc003dd0fU,
  0xc0047b6ebf1d7898U, 0xc0311ce4bfd14353U, 0x3eedafaebf420328U, 0x3f63353a3f80ef68U,
  0x401cfd5a3fdea944U, 0x3fa23afcc02a894aU, 0xbf93eb68c000a12eU, 0xbe09ed943fe179a7U,
  0x3f2f8b513f27c4a3U, 0xbeb879db4043eacfU, 0xc05e6e60401ad590U, 0x3d97084e3eee90c8U,
  0xbe7d3127c03af06fU, 0x3fa1a8903f55f37cU, 0x3f90db3f40019f69U, 0xbf1375603ec112f2U,
  0x3e610a203f21406eU, 0xbfa6535ebee9f1a6U, 0x3f89826b401bc8acU, 0xc0620341bfc517d5U,
  0x40055fa0bf4ddb5aU, 0xc00a1befbed45ba5U, 0x40071cce3f565ccaU, 0xbe5ab37c3facd9adU,
  0x3dafeb7c3ecf48e3U, 0x3f5fc855bffcb988U, 0x3f6719f140685414U, 0xbcb26fcabff98381U,
  0xbf8e5867c04442eaU, 0x3e827f56c03bffc5U, 0x3f4eb4363e4ac78bU, 0xbe2bf4653df93f61U,
  0xc07a6d41c03f29b0U, 0xc001f2ec3ec114cfU, 0x3ece06f6bef48c29U, 0xc060f040bfe42668U,
  0xc093d03bbf7f49b3U, 0xbf2fa164bef0e993U, 0x3f32c8f3bfe9b472U, 0xbe0fe1733eecee9fU,
  0xbffbc7f53ef4fd6aU, 0x3e1c3e4b3f94f2bdU, 0x3f3adec3c00dc273U, 0xbeb9888ac09d4410U,
  0xbf4fc1ff3c9befadU, 0x3faaceccc0357469U, 0x3f69e6f5bf475d5eU, 0xc09f416ebfa2c440U,
  0xbfa6a375c0549887U, 0xbf7c0f9ebf86c2b6U, 0xc01340bc3e886998U, 0xc003110ec02e587eU,
  0xbdbde44a3f91ed5dU, 0x3f09a439bfb99fd9U, 0x3ff3362b3d015cf6U, 0xbfe798783fdf25c4U,
  0x3dc722223f7588d9U, 0x3ee6af813f1b802fU, 0x3f986409bffd8c98U, 0x3f60a07d3fa9e104U,
  0x400d7524bfb5aa7aU, 0xbf32794f3c50adcaU, 0x3f990a50c084d760U, 0xbe8322aebd13154eU,
  0xc07c4ce2bf8cc297U, 0xbfc2b1c5bf50fc76U, 0xbff5bd95bf5d996cU, 0xbf255ff7bef755eeU,
  0x3ff38796bda5ad47U, 0x3ec4f4a03e41784fU, 0xbf072283bf80f9edU, 0x3da5a035bf35ba55U,
  0x3f2013ddbff614a1U, 0x3f50b0863e74d6b1U, 0xbf01cf3cbfa90877U, 0xbf9c5f673db5a510U,
  0x3dac858ebf641224U, 0xbe972d50c00309e6U, 0xbf4c610ec048c353U, 0xbf81a219be2b40f6U,
  0x3e88622bbf1ce273U, 0xc0620684c00a1f6cU, 0xbd3203f2bf7379cfU, 0xbf749c4ebf99c926U,
  0x3f0de176bf7ac967U, 0xc0663b773da36eb2U, 0x3f84c284bf220a6dU, 0xbfe97b7ac028194eU,
  0xbdce11563fa53ccaU, 0x3e9e74173fb64b24U, 0x3f6f02bec083f8f0U, 0xbfd3c367bde7ea2fU,
  0xbfac70b73feb3cb4U, 0xc07945b33f8c1ae5U, 0xbeeba358bfcd8d49U, 0xbfaef9d33f4151f9U,
  0xbe83a2e33fa6df7aU, 0x3f6d79a6400323f0U, 0x3f441a583f07c382U, 0xc07114993d007e34U,
  0x3fe389ad3ec0583eU, 0xbf968ad83fba739dU, 0xbf84dcb0bf474a1cU, 0xbfb51ba6c00174d6U,
  0xc043164b3ee85439U, 0x3d68b279c0788305U, 0x3f0fbc3440254efdU, 0xbf2034853f9d5d48U,
  0x3ec403d5bf2ce40aU, 0xc014dc9ebed32c6dU, 0x3f0959debfa37003U, 0xbf9a6da5c00f1096U,
  0x3e66d395bf80a446U, 0x3f56b56f3f6082abU, 0x3f9a6fa03ccce7bfU, 0xbe87cb9f3f23b890U,
  0xbee98e93bed19620U, 0xbf8fb352c02faa99U, 0x3f1f3c0f3e9f04bfU, 0xc035c73d40329938U,
  0xba7c5220be835a5aU, 0xbf1a15c44028c049U, 0x3f651ee7bf125003U, 0x3ea236a9bf7d8cd4U,
  0x408d7880bed81377U, 0xbfed111e3f06fdd6U, 0xbd96976abf2e3035U, 0xc01a5f87bf970693U,
  0xbf1a6e60bfad769eU, 0xbf9af122bf39a3eeU, 0x3e819df1bfb6e627U, 0xc07be4633e95570eU,
  0x3ef00b1b3f8c27a7U, 0xc02298463f861bfcU, 0xbfbc1c8bc06b66c7U, 0xbdef53ca3f74128fU,
  0x3f3535143f617d95U, 0xbfdddc5f3fbcaec9U, 0xbe8d7263be951be1U, 0xbe429a753eb0e93eU,
  0x3fa692c4c033d194U, 0x3fbacc763f8b79ddU, 0xbff0f888bc8a6ec7U, 0xbfb2fbbcbeb3a9c9U,
  0x3dd0d48e407f222eU, 0x3f4ca62f3f011a50U, 0xbf8a7dd6c020b8b1U, 0xc090b40dbf5e3d0cU,
  0x3f9d664f3f67b82aU, 0x403d1aeabf9d2b6dU, 0x3f57e093bde21767U, 0x3dc181b33e929d05U,
  0x3cfa5f8f3fe89318U, 0xbf9858263e3fade1U, 0x3f21230f3efef71cU, 0x3f00c81fbe049745U,
  0x3fdabf7bc0323a79U, 0x3f84b4933d8f2431U, 0x3ef0db713f8e1291U, 0xbf49effc3f47aa37U,
  0x3f92891b3f0fb5b4U, 0x3d8bf832bfa84cfbU, 0xc028261f3f3a9c26U, 0x3fa90c51bee0e619U,
  0xc00d9e9e3ee4dff5U, 0x400c3e253f8f1435U, 0xc033e3e8bfd68ae2U, 0xbf4b6f513e5f6c53U,
  0x3f8ae5f4c08c38acU, 0x3f7ab05bbf664d4dU, 0x3f5d6a10c01286b5U, 0xbf406024bf841abdU,
  0x3efb655f3fc223e5U, 0x3f13692d3ea2cdafU, 0x3f9b7ad2c02c12c2U, 0x3efa3de23ee983f5U,
  0xbe8a3defbe44a06dU, 0xbd2b237a3fc22c17U, 0xc03961d03e8c4955U, 0xbf218f98bf51f5f0U,
  0x3f5912ab3fcab125U, 0xc03c78113f0e8d3fU, 0xbe9baf04bf22dd1eU, 0xbec6830fbf0dfab1U,
  0x3cdf66903d157d12U, 0x3e962ccc3f954c1fU, 0x40070676c08a51adU, 0xbfb9c6d0beaa1c0fU,
  0x4065fb2abeb484c2U, 0x3da29c98bf5fef2bU, 0x3fb6a421c00329f1U, 0x3f062096bde66a5cU,
  0xbfe73f6f40034f2fU, 0x3e008b5d3ef4d887U, 0xbfc84fc43e13630eU, 0xbf4eceadbe1f2837U,
  0x406241c9bf3506feU, 0x3ee5fe903f14b6bdU, 0x3ff83ed1beae0787U, 0x3e9b9e4cbed494eaU,
  0x3f5c0376be1da9caU, 0x3ebc1e09bf68ce6aU, 0x3e1034ef3f003ffbU, 0x3f72d453bf8d481bU,
  0xbf39b271bf8ad8a0U, 0xbd94c966bfcf4638U, 0x3f216120bf679aeeU, 0x3f43ba1239ec5a2cU,
  0xbe29febf4046af9dU, 0xbfcd1647bec4e5a2U, 0x3eb9d19e3f21653aU, 0xbfe0a63240030e10U,
  0x3ecf4c053fc06e2bU, 0x3f150c493e881d2aU, 0xbea4bc2e3e345ab1U, 0x3f55cdd3bf947d4dU,
  0x3df12f90bd85a416U, 0xbfe64b0a3fec4ff6U, 0xbf3fd141bf090f95U, 0xc00e542e3dee1675U,
  0xc034e562bf368a10U, 0xbf8a14d33d00ce41U, 0x3f0ebf573f1c6fb4U, 0x3f71a1eabf33cbc9U,
  0xbf049e6bc0084fa7U, 0x3ea2ca1abf727714U, 0xbd4fbd2a3efb8011U, 0xbfa7b69abf127e31U,
  0xbf57c6423ea5fbbbU, 0xbea22e50c00d00c9U, 0x3f2a50c8bd985513U, 0x3fd4249b3f073801U,
  0x3f8ee1c6c0068b91U, 0x3f02a45a3d0694ddU, 0x3fd8e4fa3df52b18U, 0xbf0e5e80bfa99bddU,
  0x3f43455f3e8fdea4U, 0xbf7f0941bedefc62U, 0xbf81423b3f8f786bU, 0x3f9287203f496975U,
  0xc019db31c02b47f6U, 0x3ec485b7be08760fU, 0xc0300fa2bebe96daU, 0x3e4322d0bfaa912bU,
  0x3e9adab33e49d2dbU, 0x401239d43f18a2adU, 0x3f7ff6b53e899702U, 0x3e29b78ac0866742U,
  0xbc8e91443dfd70dfU, 0xbf63fcbabfd5e852U, 0x3d32bf6bbd99af4aU, 0xbf5e93723f0d7717U,
  0x3e6e3170bdfec78dU, 0x3f0e9f32bf583389U, 0x3f912da53f6af8a6U, 0x3f8599cbbff157cbU,
  0x3edca6843f9701d0U, 0xbf7486513f0ab56aU, 0x3e9cfa12bf206de8U, 0x3ee6d4153effcca3U,
  0xbe31ebd1beaa9e8fU, 0xbed160a13e92be75U, 0x3fc81cd3bfaac23eU, 0x3fab4fa7be866b5cU,
  0x3dc7531a3f27b273U, 0x3f97317bbeb0a432U, 0xbe7c06693d86d4e2U, 0xbeb686d8bfe79ce4U,
  0xbfe31b933e1a4105U, 0xc0443a1cbf333dcaU, 0x3f67a65d3fd4d719U, 0xbf6679243f292cf7U,
  0xbeb48ee6c01a049fU, 0xbe120027bebb0e46U, 0xbfbc5c7c3f0bb5baU, 0x3ed164b93db7120fU,
  0xc00ee75cbf01f34fU, 0x3fa15b59befdf9c8U, 0xbede1ec03e21c1c3U, 0x3f60938dc02840d0U,
  0x3d3a261b3f3636efU, 0x3e02f6573f8405f4U, 0x3e0f6888bfce0633U, 0xbf0372eec0372778U,
  0x3f89a70bbf9385eaU, 0x3eca00103e8b6f42U, 0x3eb2ecbebf21b523U, 0xbf97cce83ebbeaacU,
  0xbf841770bfe244bcU, 0xbfb23cc53cef7552U, 0xbff76851be9b37e5U, 0xbf3bbe93bfd099fcU,
  0xbfca35a4bf045384U, 0xbf002119bf289f3eU, 0xbf46d8f1bf3b5960U, 0x3e4c1478be9c3c21U,
  0xbf3c5c263e686b90U, 0xbe5b6a74bf118189U, 0x3f1acdbb3e52f023U, 0xbd77d8eb3e92e668U,
  0xbf23177a3e1474adU, 0xbf2a6ccabff40fd5U, 0xbe96cc68bf8c20d3U, 0xbfb63a9fbec9952bU,
  0x3e27d628be0c5cadU, 0xbf892e12bf2168b5U, 0xbde6bea0c0093d4dU, 0xbefeee03bf173a3eU,
  0x3dcd5e013f528b30U, 0xbcc7f5293e67eb4fU, 0xbf964d5e3d57050dU, 0xbf88e78cbf9fb86cU,
  0xbd3693693f20cc75U, 0x3e6c0b4fbec88ac9U, 0xbf044ad1bf81895fU, 0xbf766cd4bf5517f1U,
  0x40429793409e17e7U, 0x3ebf992cc0755f89U, 0xbfb6c1923f3aab81U, 0xbe976af84021d7a1U,
  0xbfd36e39be8efa63U, 0xbe96e236be7908dcU, 0x3f5b7a24bf0b04efU, 0x3ec9f5adbfd07ff5U,
  0x3ee1b4543e896edaU, 0x3bfed8cec08bde04U, 0xc0040834bf5c3209U, 0xbfc427f7bec49478U,
  0xbdb6860abecfb447U, 0xbe0769f8be13f920U, 0xc02268cdbea38270U, 0x3df83507bf83012cU,
  0xc0059820bf12682eU, 0xbf8391d83f966fe1U, 0x3d85f632400de705U, 0xbfe8aa373eaedfa2U,
  0xc02e36193db8c791U, 0x3f7e5eb43f93e67fU, 0xbfbd30e1bfc64512U, 0xbf4c4542bcf93f90U,
  0xc007f5543d0529a4U, 0x3fab5f5e3cfd4827U, 0x3eca8680bffb6f6cU, 0xbfc2e879bf2f64f7U,
  0x3cdce3ea3ffd8e05U, 0xc03d5881bfd9600bU, 0xbf24616e3ee222ebU, 0xc02eec95bf9c0d06U,
  0xbd0e8851bcbc72e8U, 0xbd42d628bc945fd0U, 0xbe0c6741bd708742U, 0xb9df88f33cd5dbf5U,
  0xbe1c27debdd0e9feU, 0xbc023209bd0aaf62U, 0xbd35624cbe041de9U, 0xbdffa72cbd4460f0U,
  0xbd3fdca4be2f113bU, 0xbe4ae254be1ac649U, 0xbd87969dbe012e40U, 0x3cd040dcbcdce649U,
  0xbd1ca2e6bc8d45c1U, 0xbe044826be266761U, 0x3cc337dbbc9646dcU, 0xbdfe880c3d23320fU,
  0xbd45e037bbaa5ba9U, 0xbd6f16e63d5d7837U, 0xbde4db66be06d06cU, 0x3d554f76bd8c17adU,
  0x3cc513f8be2940b1U, 0xbd5233f13d4a52d5U, 0xbe58d41b3c11ca0fU, 0x3d319546bc830939U,
  0x3d4826ab3cbda908U, 0x3cd63f50bd4f5517U, 0x3b923098bdb668f6U, 0x3cc5e4f03cb3854cU,
  0x3dbc291abbab8a12U, 0xbe0964c0be0c825dU, 0xbe2be0af3cebf531U, 0xbd8a3ae4bdef4bd9U,
  0xbf9024b9bf7e402fU, 0xbf8114793f397663U, 0x3fb7fdafbde1d9c6U, 0x3e176a11bf88c2fdU,
  0x3fad6409c03646efU, 0xbe0bb6113f40b5d1U, 0xbf859fb7c03976b5U, 0xc0673240bf78371cU,
  0xbf670c843ea8af7eU, 0xbfb89f34bf8f5169U, 0x3d9cdd3c3f4825e8U, 0x3e915625bfd0e957U,
  0xc02bfc5b3ee70b4dU, 0x3e33d46ebf8c69b4U, 0x3e138ba2bf407e0bU, 0x3e9179e0bf3d6f86U,
  0xc07bf83d3f254aecU, 0xbf5f6aef3e81176cU, 0xc000747abf9dfdabU, 0x3f011ddac0695f52U,
  0xc0450e863e8de138U, 0xbe35f6dd3f03fd4aU, 0xbf076ce8bfa660d1U, 0xbe7c6c4d3f215fb5U,
  0x3f46dfc7c0b628f0U, 0x3ea47773bfb7cceaU, 0xbdd256b3400442ceU, 0xbf04eea63f955455U,
  0xbd649a1cbf9d74fcU, 0xbf1350e83f874248U, 0xbded8ed1bf8cb24bU, 0x3e6eb4193b81aeb5U,
  0x3f86c0e4be663cc1U, 0x3fcd5e35bfc365c8U, 0xbe8e9b083f9d04cdU, 0xbeb56f56bc60c5c7U,
  0xbe269380bf8ecf2fU, 0x3e2682ce3f00258eU, 0xc09512cabf780281U, 0xbd70ec8c3f0739baU,
  0xbfc9b0eabfea26dbU, 0x3f9b2e713e08ff41U, 0x4014920b3ff155caU, 0xbf4cb8ca3f66b73bU,
  0x3fc1a9fdc080289aU, 0xbe1e7347bec0abd4U, 0xbed77109be8e068bU, 0xbf809c4ebc9ddf40U,
  0x3e1e6a0a3f01a5dbU, 0x3f9b211fbdb08710U, 0x3f15af5dbeca4ba2U, 0xc02525b73f8bff15U,
  0x3fbc2db7be8d5811U, 0x3f8adeb9c044c43fU, 0xc09c97c23f94e553U, 0xc030fd5dbe9df499U,
  0x3f9b10273f254372U, 0xc05dcc163f892672U, 0xbf5ace103f5b555cU, 0x3f91f32cbfb7af49U,
  0xbda581c43e46048eU, 0xbeb603f93f2bf8e5U, 0x3edcb442c07bdbaeU, 0xc042f2113f493dc5U,
  0xbfbe180c3fb130e0U, 0xbbf1933a4043a5e6U, 0xbf406cb23f2f71bfU, 0xbf81a4d03fbb3d24U,
  0xbefc1de43da3711cU, 0x3ef6ee96bf63b384U, 0x3f8fc19b3fa7cd86U, 0xbe215ae63f965eecU,
  0xbee190ecbeed957bU, 0x3fb528efbf829c48U, 0xbf73db293fa3506eU, 0xbe0a943b3f1e512aU,
  0xbecc1b033f497219U, 0xbdee2fc83f9d3b02U, 0xbeb3a325bf42c363U, 0x3f9640f3bf22b6c5U,
  0xbea5fe31bf3be9f3U, 0xbfcfc5943dd66ebeU, 0xbf054db7be6d5871U, 0x3f94ed03bdfe97faU,
  0xc085deddbf98915aU, 0x3f9352eb3e7ca48bU, 0xbe7e5582bbc04711U, 0x3e0a94dd3fa7d4b0U,
  0xbf2fc91abe321a3cU, 0xbfd6e00f3f0e7b13U, 0xbe44a6063f51baabU, 0xbf1a68eebe33c250U,
  0xbdd340073eae98d0U, 0xbe8dc8f2bf072f07U, 0xbe820b473f50f30fU, 0xbfaaa7a23f1fed77U,
  0x3d60b4e9be1c1631U, 0xbda02a33bceaa996U, 0xbc132c5abdc5cb9aU, 0x3d0c4268bd1486eaU,
  0xbcab743fbc2fa7d0U, 0xbe25c6893c933364U, 0xbd053818bb9f6691U, 0xbe2d8cadbe43000fU,
  0xbb601efbbce68d42U, 0xbd554c19bdd4d975U, 0xbd4fdde6bd0bb2bcU, 0x3caa10c33d562f1bU,
  0xbe3aefaebe83fb91U, 0xbe078240bdaac13dU, 0xbd790425bca0e808U, 0xbd6a7a153d2966e5U,
  0x3d7fc890be2f81a3U, 0xbd5a5f543d97c586U, 0xbc18045dbd8b76c6U, 0xbe259e8abe54ea81U,
  0xbb8460d3bc8a360fU, 0x3c7a00ec3d98882dU, 0xbe106211bdac987bU, 0xbd772e0abd9e5704U,
  0x3d3a307bbd8d2763U, 0xbd760db43bab1451U, 0xbe24bedf3cba0990U, 0xbd700bee3c7cbf0eU,
  0x3c5b4250bd4b71c4U, 0xbd43a6043c3ceadaU, 0xbc18c7243b2a51d7U, 0x3d860e52bca10537U,
  0xbf6aacdebea04871U, 0x3e585ca7bf7fb08dU, 0x3e5ff744bf2cb220U, 0xbfa57f56c098f8e9U,
  0xc0603a5e4001a20fU, 0xbf1344f4bfcfbb05U, 0xbddc70133dd64d43U, 0x3de7a27dbe150dd7U,
  0x3f46bc653fcd107cU, 0xbe5a0d5c3fb33836U, 0xbf84bf3dbf79aa3aU, 0x3f1ae986bfee9d57U,
  0xc07a951e3fc440c2U, 0xbf0608fdbf134ff6U, 0xbfb65a2c3f001da6U, 0x3ec099b5bf23d722U,
  0x3f27325dbf9acf49U, 0xc01dcccb3c856597U, 0x3f22a6d8bef6bba3U, 0x3f263e1dbf2cfd36U,
  0x3ed6ed22bd077eaeU, 0x3fc97c643f85be7cU, 0x40105180bf32cad6U, 0xbf88c11d3ef5e524U,
  0xc023a0f5bf506670U, 0x3e76e6203d9a5641U, 0x3f4bcc9d3f20482bU, 0xbfac62063ef7114bU,
  0x3ce11a983fa8c808U, 0x3f547ca4c04a63d0U, 0xbfb0a38dbc851325U, 0x3f06aec1c067f45dU,
  0xbf8f52b9be7ac08bU, 0xbf34e7c5befed0c1U, 0xbf9bea6fbf85982bU, 0xbdd9e0b6bf96870fU,
  0xbf173d1f3fc71eddU, 0xbec27e7cbfd3a910U, 0x3f16819d3e99ad53U, 0x3efaa3a1bfb53a78U,
  0xbfe933683ea36386U, 0x3fa42163bdc0b014U, 0x3e0bf77a3ef7ba73U, 0xbfd1de3abfb07b6bU,
  0xbefd863dbf7f63aeU, 0x3e3a6d523b887458U, 0xbff7ea40becb7868U, 0xbf8430c4bf8b6250U,
  0xbfcf2a91bf250979U, 0xbf01eb003ef806f4U, 0xbf7a1e41bf96b5c8U, 0xbeb7420dbf6b475dU,
  0xc00991043da2448dU, 0x3f8064b3be5e08ebU, 0x3f24787bbf55a474U, 0xbd477922bf6f2224U,
  0xbddd2245bf802246U, 0x3eb049893eafaca8U, 0xc029c0fd3f882303U, 0xbf23dbb4c035b32fU,
  0xbd954a123eae6a99U, 0xc0267ea0c000e165U, 0xc0257faabf9111a8U, 0x3ef44c7b3f005f45U,
  0xbfa157f03f54962bU, 0xbf281e8abeedf925U, 0xbf26a83b3f67e77aU, 0x3e3ea482bfd0b8ccU,
  0xbe98a4bd3e019387U, 0x3ebd59413f910e40U, 0xc01096183f42f4b2U, 0x3f390441c00c2bceU,
  0xc02b5ad4be5f11fdU, 0xbe4464b4c019873fU, 0xbfd060a93fbaf4d6U, 0x3f97c73d3e196a5aU,
  0x3f0b4266c059e151U, 0xbe87ec49bfdb6539U, 0x3f655fb3bfa254f8U, 0x3ee2bfbbbf96cb2eU,
  0xbc062fb9bcad5164U, 0xbdbbe405bfa246e4U, 0x3fb06433bff0e27eU, 0x3fcfd1c63f265c92U,
  0xbf1320493f7728faU, 0xbf380cc33ef0855eU, 0xc03419e23e4db275U, 0xbd4781d7be4d1933U,
  0x3f20395f3f697b1eU, 0x400c6d763e8e4454U, 0xbf527a783f44c8faU, 0x3f9be53bbfac3a41U,
  0x3d289fd0bbcd6c53U, 0xbf102cf6c00b2736U, 0xc010deb1c0638f44U, 0x404a33793ebc613bU,
  0x40352259408560ffU, 0x3eac9b023edd5ca6U, 0x3f2533dcbfae764dU, 0xbf1b1dd43ec26879U,
  0x3f8a74a63e5f3bc2U, 0xbfa4cdcdbfb659abU, 0xbf790651bf84970dU, 0x3fb8458ebff97e16U,
  0x4044e152bf1325aaU, 0xbfc8f187bf19a70cU, 0xbfec2fe43f9d668bU, 0xbdded6a1bea6c01dU,
  0x3f9d63823de6cd37U, 0x3c7b17d3bfee3c0fU, 0x3ff1ceadc02c1530U, 0x3ee14ec3bea6dc6aU,
  0xbea42dbd3f97882fU, 0x3e34076abed1e813U, 0x400759b53e684108U, 0xbfc6dabbbf0b733fU,
  0x3f629f0b3f03bb60U, 0xbe9739e2beae4040U, 0xbfd4ac2fc05e27d8U, 0x3fac44ce3e6611ebU,
  0x3fdcb2a73dd28dd9U, 0x3fc4973bbf3622b2U, 0xbfd35cc03ea559a5U, 0xbf3da5f93e3e1540U,
  0x3cd36d37bfd061a8U, 0xbf727ff33f80d1c0U, 0xbf87f61e3f9a3121U, 0x3fdf1e6c3e2dab3cU,
  0xbec5bb38bfab2e74U, 0x3f85e961bf3bc1eaU, 0xbeafd816bf02559fU, 0xbe7e09723efd60bcU,
  0xbdc7087e3ecd1527U, 0xbd8de6613e801d87U, 0xc0548434c0685658U, 0x3f814781bf31b689U,
  0xbf4e806bbe512606U, 0xbf2ebe53c0003950U, 0xc00c6961bfa2d750U, 0xbf197eacbf9aed9bU,
  0x3e587f16bf5c90acU, 0xbd9169cd3eaed77eU, 0xbef7cb0abe9a4433U, 0x3ea1913e3ec25f47U,
  0xbe39808d3e801f23U, 0x3fdb6842be25515cU, 0xbd6a5f86bf7e38edU, 0x3eab11d1c02d3581U,
  0xbf824c943f7f3aafU, 0xc00224dcbf158303U, 0xc04a29853f8e7ddfU, 0xbf8745d4c011aadeU,
  0xbe6b2810bec11b43U, 0x3da27ca6bf95ea5bU, 0x3ede52cdbec2bb1bU, 0xbccd9668c02402dfU,
  0xbd20010c3ed9dd15U, 0xbde15d9c3f30bb9fU, 0x3f23e278c08ff62dU, 0xbf660403be10a73cU,
  0x3d9f80f0bb9adbc2U, 0xbdcc9e4ebd17228cU, 0xbdea0d49bc9a075aU, 0xbda5757ebe2bf0e1U,
  0xbc7abd4e3d09c31aU, 0xbe29e0f03bdc85eeU, 0xbd3d686a3dabbd27U, 0xbe0fb4383d428f74U,
  0x3d8fbac73d148e79U, 0xbe1ec294bcfe18fdU, 0xbe01c95d3dd89478U, 0xbd15f41fbd8ca240U,
  0xbca33194bd6eeb64U, 0xbc9d6d9fbe12ab3fU, 0xbde622babc984598U, 0xbcce45b5bcaa43d6U,
  0xbd49d739bdde8609U, 0xbb7bc94ebdde7686U, 0xbd3e8037be09088bU, 0x3cbc16bebd851b2fU,
  0x3da9fab6be063f46U, 0xbe02ac0d3c9ee5c6U, 0xbde64cfcbe132e4fU, 0xbdfc8a963cf5eae6U,
  0xbe161698bdcf7c0eU, 0xbda64ee8be043265U, 0xbd919c28be07571aU, 0x3cf7b014bd76901aU,
  0xba3d8700bdc4e736U, 0xbddd55c9bdc2e04dU, 0x3a4b94543cc884eaU, 0xbdd201393d965360U,
  0x3ed842ffbdcaa7b2U, 0xbf15aa0abfcc907bU, 0xbec7d6a5bf8b6872U, 0xbf971374bf0c8dc3U,
  0xbb45e5e93e368d63U, 0xbf2eb437bf86053bU, 0xbeeb564bbea449bfU, 0x3f213df73f3574baU,
  0xc0283107be3e1d58U, 0xbf9ab8e6bf248a9dU, 0xbf3e3da5bf96fb3bU, 0xc01bfff9beb098cbU,
  0x3f934eaebf3e1f56U, 0xbfd8b0633f0c485cU, 0x3f8e6c78c02d0b0aU, 0xbf343b14bf26dbdeU,
  0xbc4808683f8262e4U, 0x3eff95f4bff49bffU, 0xc0015687bd7d4f9dU, 0xc01fbac8bedcf07aU,
  0xbe0862f3c0026d12U, 0x3efec197c010056eU, 0xc09227693d8661baU, 0x3f1708f33e86f189U,
  0xbed0c87f3faf334aU, 0xbdaef4f6bfb93aa7U, 0x3f5e4d09c0405c62U, 0x3f83825e3ec48f6cU,
  0xbd4ea6a4bf01886eU, 0x3dbfa8ffbe8ad17dU, 0xbf3d3c413fe70e11U, 0x3ec5b54fbf1c5838U,
  0xc00ead503ee95b83U, 0xbec7474bbd6d5c9dU, 0xbf7615543f1c4ab8U, 0x3e156fb43da5558dU,
  0xbddb59a6bf563529U, 0x3fc2dc8bbf56016fU, 0xbfa912b83f6e1d49U, 0x3f854ea1bf9b62c4U,
  0xbf4f7d9a3f6f285fU, 0x402cf0c63e1b4e0bU, 0xbf5036c43f597251U, 0xbeefff313f4657d5U,
  0xbe54382bc02715afU, 0xbfb053913e8e8b03U, 0xbcd006893d698094U, 0x403fd669bde12efbU,
  0x401f110ebf052c85U, 0x3f64d5b0c00643c2U, 0xbf01a4e73f3c5dd4U, 0x3f75d3bf3f645648U,
  0xbd9df8d63e05e695U, 0x3dd805b7be9d5f4cU, 0xbfe57ef04026efb5U, 0x3ec85547bdb4ec9cU,
  0x3f3123fd3e643d0cU, 0x40409e293f54983eU, 0xbe6e4a744007b6fcU, 0xbebf8f4fbfe31eedU,
  0xbd0c0397bf139d4bU, 0xbf768f3e3e916992U, 0xc035aca5bfd91f8fU, 0x4037e73f3f0f1bfaU,
  0x3fc6b69fbe95ae3dU, 0x3f892e633f10c963U, 0x3f1d4049bfb15180U, 0xbfa3ca65bf94da95U,
  0xbfdd69d2c0039784U, 0x3ee3fc6ebf1e7f4cU, 0xc0ce50dc3f8a05a6U, 0xbef62a41bf3cfecfU,
  0xbf127d1fbe66e12fU, 0x3f2b2b76bf232c0cU, 0x3f77cec43f65675eU, 0x3f806b5b3f94b548U,
  0xbdf69487c06a9946U, 0x3e7fe8e2bfa40e52U, 0xbe0d1adcbfdec9d7U, 0x3e8b9e23bfae0eb6U,
  0x3cd500f9be94ed12U, 0x3e39afadbef5e20fU, 0xbfb9c10abda2db10U, 0x3dfd6ce73f6b15d0U,
  0x3e475e23bf0bdb0aU, 0xbe5c853fbfe8b304U, 0xbf7103e5bfb89b0eU, 0xbf96ddbdbec9a129U,
  0xbf821801be3dbe3cU, 0xbf70ceb63f305d58U, 0xbe81e847bf820e93U, 0xbed74cffbf4140b6U,
  0xbdda4532be816583U, 0xbee52a7c3f933329U, 0xbe9f14e6bf91c6e2U, 0xbf9cac8cbf996427U,
  0xbf0daec53fe29442U, 0xbf8390243df6f2faU, 0x3ed928bec04398b1U, 0xbff295b8be975b68U,
  0xbfaee43cbf7b214aU, 0x3f0b1c35bf603136U, 0xbfacbdd0bf61f193U, 0xbf2ab54040041f66U,
  0x3f89b2d0bfb89878U, 0x3c73d0d23f447dabU, 0x401664533e3de632U, 0xbfbcd0083f803b2aU,
  0x3f1d7725bfb82c56U, 0x3d988be8bfbf42b7U, 0x3d12e66fbfc0ac8fU, 0xbf8c420dbe0f2bc1U,
  0xbf028524bfc75f95U, 0x3e63bf8dbe0ca0ebU, 0xbe2f8fac3e88a8d7U, 0x3e7b3dc7bfea6144U,
  0xbf271d98bf2c589dU, 0x3d3b267dbf857db9U, 0xbfbd4ceac0117c6eU, 0xbf866690bfabd9a7U,
  0x3ecd26b0bc05ce4eU, 0xbed48d573f4a0502U, 0xbe37d8aabeff49eaU, 0x3eef9b053f0de61fU,
  0x3dcfc506bf2d2c62U, 0x3edee8c03e9ca6fbU, 0xbe22c0e6c04d49beU, 0xbed6ce71bfada83aU,
  0xc0088b8dbf3accfbU, 0xbf91f20bc08893eaU, 0xbf3e8a4bbe3a5cefU, 0xbf95dddb3ed38092U,
  0xbea44fd1c024795fU, 0xbebb8984bfff3028U, 0x3e5c2e85bfd76072U, 0xbe6f8393bfa546edU,
  0xbfb877c0bf2d8be4U, 0xbf5ff280be148f63U, 0x404322efbb695cb6U, 0xbdf6df7fbfcc850aU,
  0xbf898a30bf672b83U, 0xbf8ba4ef3e937098U, 0xbf4c1118bfb6aeafU, 0xbf774c9a3f268b30U,
  0xbfa243d1be566981U, 0x3fad0bf3beafb1f3U, 0xbf2e308abecb3c5dU, 0xbec2034dbfaeb684U,
  0xbf8a198ebe6eeb35U, 0x3d6802253e8b52c6U, 0xbfd07db9c002490fU, 0xbc34f0b93e82298eU,
  0xbf613a8e3f201c60U, 0x4003f2d0bfbc88fdU, 0xbf998f5ebf4835faU, 0xbefc1b7fbde9796aU,
  0xbe011a483de070e6U, 0xbee20ee13ffe41ffU, 0x3f6ba7f2bf65f983U, 0x4002c3f43dd29151U,
  0xbede80d0be8b4309U, 0x3fafe6333dee660aU, 0x3f98d7303f0567caU, 0x3e2d63d73fa49996U,
  0x3f45a8d83fa4f4b0U, 0xbfe891d4bfd8dc73U, 0x3eda5181bf68ab93U, 0xbf08bcf33f095b48U,
  0x3fff1a23bfd3294bU, 0xbff3a3d53f17c992U, 0xc01cad613eae8a46U, 0xc01d9f873f100ceeU,
  0x3f9cbeaa40349e3fU, 0xc029e9243f4c3c61U, 0x3e9eb2ccc0048622U, 0xbf908e543fb501e1U,
  0xbfc837c63ebad906U, 0xbf55facdbea5120bU, 0xbf2568d7c028c990U, 0xbf13ccd0c00ed384U,
  0x3f68530e3fc3890cU, 0x3f99ee653f5b18f0U, 0xbe0decefbf9efce1U, 0x4006bd99bfd13e61U,
  0x3f449cad3fb2d6a7U, 0x3f7d1870bfb67613U, 0x3f62df7dbdc06416U, 0xbfa3df393f097b7fU,
  0xbccbbb623e9f87d4U, 0x3f7690933f28d3feU, 0x40178203bec8be3cU, 0x403c99df3f81450aU,
  0xc0184b08be98615fU, 0xbfc15bb23edc2b33U, 0xbeccc1c23e90bc0eU, 0x3f129ccbbfea5cf0U,
  0xbfccfbd9bf892646U, 0xbea0736abf1a7d50U, 0x3e18f647bc5d2925U, 0xbefc4ecfc00e6ab3U,
  0xc019d0c2be953832U, 0x3d916d0bbf553a70U, 0x3fb91b0b3f028870U, 0x3e9ae6c53f5d16d8U,
  0x3f4e3f1cc01b0711U, 0x3f31958d3e6d23c5U, 0x3f5106033f203cccU, 0xc0084aafc014795aU,
  0x3ef7e2423da09263U, 0x3f57a1d83f63206dU, 0xbf8e8e2abf0c6546U, 0x3f0f12093f8864cfU,
  0xbf6242fbc05f79d1U, 0xbc17814a3f7042caU, 0xbffec3b3402fa714U, 0x3e9965f5bfb01af9U,
  0x3cc257a23ea0eec2U, 0xbee86e29bf10d26aU, 0x3f32dd583f502882U, 0x3fa2de69bef8888fU,
  0xbd8332503d4bc1c0U, 0x3ef297f1bffc762eU, 0x3bd56e814000ccd8U, 0xbfa2282dbd36d9a5U,
  0x3ef7a1c43f508f14U, 0xbe1169943e212264U, 0xbf362786bf7cd57aU, 0xbfa2e61fbefb01f4U,
  0xbe11224f3f6a9848U, 0xbfe3f139bddf8ef4U, 0xbfb97e5bbf39137fU, 0x3f4870f53f30236fU,
  0x3c2316b8be221bacU, 0x3f9edce8bf2d6209U, 0x3f0bd4e4be06202dU, 0xbe1d104cbf2d70fbU,
  0xbf399fccbdc17e39U, 0x3d3f4ba4be624d4eU, 0xbe2e2ad7be27010aU, 0x3f2f330abf2cfdd5U,
  0xbf8080cebe057694U, 0xbe5c921abeb5f75bU, 0xbedf2c7a3e9c53e1U, 0x3f18e8153f37f5b2U,
  0xbf63efaf3f13b581U, 0xbf4c41093f64f8baU, 0xbe8dcb0f3d5033d3U, 0xbfdee908be022f5cU,
  0xbe2246aabefb3807U, 0xbe2b2c77be0883a0U, 0x3e3be188bfc10807U, 0x3f2b10e6be852b20U,
  0x3f4e99e6bd9ec52fU, 0xbf44e9e9bf067be8U, 0x3dc51102be9be697U, 0x3e8458b53f916d9fU,
  0x409d1d224022fb58U, 0xbed23cd0bf35c0cdU, 0xbf2a4d173ebacde4U, 0xc005f08f40bf96fdU,
  0x3d195196c0869393U, 0xc0b060fb3da08512U, 0x40920e2f3fa97bacU, 0xbef22ec4bebbd94bU,
  0xbc664da6c06e0c02U, 0x3d65677b40379127U, 0xbf7d3e88bc081705U, 0x3a79ec08bee05c5cU,
  0xbfb89d38410dd356U, 0x40dc1186be934f75U, 0xc0fd5a65bc90b3cdU, 0x3e4e5e05bfd9f270U,
  0x3f34380cbc57b598U, 0x3f50c8d73ffdbc60U, 0x4109a59dbf7b0a6fU, 0x3fccec163b2010d6U,
  0x409a7525bf61335cU, 0x3ee5d924bf2dbcf7U, 0x3ff77c51bdefd2c0U, 0x401a5dd03c1ed629U,
  0x3f7d1e193fd5687dU, 0xc08459c3bddf6a56U, 0xc07ebc81c08d2623U, 0x3f158cd83f55f6d6U,
  0xbfb59fe63df72593U, 0x3f725e6ec087c61aU, 0xbf0ce6683f702279U, 0xbeee6d77bf12d57dU,
  0xbf4f0b563f22a718U, 0x411c210b3f8e8cdbU, 0x3f4445e2bf03c883U, 0x40a66d5dc0cef7d8U,
  0x3d14b644beb025f5U, 0x3ef01aa33c6ffc05U, 0x40093c88bf1db595U, 0xc09c7595c053ec01U,
  0xbcf2c7214035679dU, 0xbff1530840c164caU, 0xc003050d3dde4d28U, 0xbb2cf61abfefd423U,
  0x4035fb8440a979ceU, 0xbf7e03963fd6a4d4U, 0x3f5613713d317af7U, 0xc0ae73103f0edfcbU,
  0xc0a99d69bdc51891U, 0xbf84768e3dceb25aU, 0x3d0c234dc05d2cb9U, 0x3f721f76c0431d68U,
  0x3ed9aeb7bf798c5cU, 0x3f8703683e0e0aa8U, 0x3eb878f2c012b191U, 0xbf8346da3ccbca31U,
  0xbd0cd3443cec2e5dU, 0xbfaffe013dc605acU, 0x3d2a79623e9a95dfU, 0xc0a374803ff4b872U,
  0xc0694f463c41e2e2U, 0x3f9a76d2bf952dfaU, 0xc022821640e92f2eU, 0x3e923a8d3ff8a920U,
  0x3fcb5acdbf9054c9U, 0x3f84574240172253U, 0xbfdf6619c0132728U, 0xc051b0b7bfda1e2eU,
  0x3dab11fac0110742U, 0x3fb8bf163d22a67dU, 0x3fda18bbbeb27545U, 0xbf8dfdedc0064796U,
  0x3c514d8640118154U, 0xbe866fa7c0ccf71fU, 0xc08012b03ded2dbeU, 0xbd498f83c02e2543U,
  0xc02e192b3fb7aaa6U, 0x3f34252e4069e8ebU, 0x3f06fa713e02b828U, 0xbfbdf1ee4033b0dbU,
  0xbe7b5b51bd9453daU, 0xbec52e4fc0172a17U, 0xc07995a3bf8373b2U, 0xbf9074d13f58ebabU,
  0xbf68d3c23f669d5eU, 0x3f9f0f23c0105374U, 0x3f1a103bbf980d55U, 0xc01948b93cca6d71U,
  0x3f96cfe1408db2f1U, 0xbeb4fa143e0e426cU, 0x3e8489f64087a82cU, 0x3e2ede32409ea798U,
  0xc054ee7bbceb7e5aU, 0xc0e63bf33fa61cc8U, 0xbff42ad93f9ac418U, 0xc00810423e51a928U,
  0x3f2c100a3e75c613U, 0x3e90004cU,
};


ai_handle g_network_weights_table[1 + 2] = {
  AI_HANDLE_PTR(AI_MAGIC_MARKER),
  AI_HANDLE_PTR(s_network_weights_array_u64),
  AI_HANDLE_PTR(AI_MAGIC_MARKER),
};

